/**
  ******************************************************************************
  * @file    neural_network_data_params.c
  * @author  AST Embedded Analytics Research Platform
  * @date    2025-03-23T16:23:30+0100
  * @brief   AI Tool Automatic Code Generator for Embedded NN computing
  ******************************************************************************
  * Copyright (c) 2025 STMicroelectronics.
  * All rights reserved.
  *
  * This software is licensed under terms that can be found in the LICENSE file
  * in the root directory of this software component.
  * If no LICENSE file comes with this software, it is provided AS-IS.
  ******************************************************************************
  */

#include "neural_network_data_params.h"


/**  Activations Section  ****************************************************/
ai_handle g_neural_network_activations_table[1 + 2] = {
  AI_HANDLE_PTR(AI_MAGIC_MARKER),
  AI_HANDLE_PTR(NULL),
  AI_HANDLE_PTR(AI_MAGIC_MARKER),
};




/**  Weights Section  ********************************************************/
AI_ALIGNED(32)
const ai_u64 s_neural_network_weights_array_u64[11747] = {
  0xc0b19103c0c68560U, 0xc06b2670c094205aU, 0xc0038009c03f00fdU, 0xbe9a2898bf807a05U,
  0x3ec0bc5bbc55987fU, 0x3fe700623f81573dU, 0x407add954038082eU, 0x40ada474409a5b40U,
  0x8788888878888888U, 0x88aa379798898969U, 0x6788888887597988U, 0x8888888888888897U,
  0x78b9787887888788U, 0x8888887a8b687887U, 0x7888888888888888U, 0x7888878878998888U,
  0x8888888888888889U, 0x8767898888888888U, 0x9888889968878888U, 0x8888888888888797U,
  0x888888887af89688U, 0x7888888888888888U, 0x888888888869aa68U, 0x7888888888888888U,
  0x8887a988887877b8U, 0x7798888888888888U, 0x888879a987888897U, 0x77c9778888888888U,
  0x8888888798888887U, 0x8888888888888888U, 0x5879788888888888U, 0x8888888888888896U,
  0x7ae8968888888888U, 0x7988888888888888U, 0x8888888888888769U, 0x5b68788789678888U,
  0x8888878788887888U, 0x966798888878a888U, 0x98888869da688888U, 0x888888888888a746U,
  0x8888888888888888U, 0x8888888888888888U, 0x9877988888888888U, 0x88888879b7978888U,
  0x8888888888888677U, 0x9978888888797888U, 0x8888888888888879U, 0x8888888888888888U,
  0x8888888998878888U, 0x8888888888887888U, 0x5888888887788888U, 0x8888961979888898U,
  0x876788888878ba78U, 0x7888888798888888U, 0x88888888888878b9U, 0x8888888897869888U,
  0x8888887888878888U, 0x888888888879a977U, 0x8888888888888888U, 0x8887788888888888U,
  0x8788888788897888U, 0x8888897777788788U, 0x879688888888a887U, 0x88888877a8888887U,
  0x8889688888888888U, 0xa978788787688888U, 0x7888788a78788778U, 0x8778888888887888U,
  0x8888888888788888U, 0x8888888888888888U, 0x8787888888888888U, 0x8888888888888889U,
  0x8878788887888888U, 0x8888889a59878888U, 0x8888888888888988U, 0x5979888887888878U,
  0x8888888888888877U, 0x8778788888888888U, 0x8888888776888888U, 0x8897778888888888U,
  0x5699888888888888U, 0x8888877788888896U, 0x8967988888888888U, 0x8888888888888888U,
  0x88a5097988888788U, 0x8888888886687888U, 0x8888888888888888U, 0x8758998888799988U,
  0x8888888887888888U, 0x78799a7878888888U, 0x8888888887997888U, 0x8888888988888888U,
  0x9947978888897977U, 0x8888888778888888U, 0x8888888888888888U, 0x7878778888788888U,
  0x7887897888888888U, 0x8798888888874a79U, 0x9798898888888888U, 0x8887688888889b47U,
  0xeb67888888888888U, 0x888888888888886aU, 0x8888888888888888U, 0x98888879a8888888U,
  0x8879997788878887U, 0x88888888796a7788U, 0x7887896797888888U, 0x8888888888887788U,
  0x8878889659797888U, 0x888888888888869aU, 0xba88788788888888U, 0x7888888888888886U,
  0x876978888889a887U, 0x8888888888888888U, 0x8888888888889777U, 0xa887888788888888U,
  0x8888781b69788788U, 0x7899878888888888U, 0x8888877ad8878888U, 0x8887769888888677U,
  0x7878888887778888U, 0x8888899797888878U, 0x788a788887888888U, 0x88878879a8878888U,
  0x8888888888888988U, 0x8788888888888888U, 0x8888888888888888U, 0x8767988888888888U,
  0x7878888869888888U, 0x88a8369888887888U, 0x6778888795469988U, 0x8888888888888897U,
  0x7988888888888888U, 0x8888888989788888U, 0x8898669888888888U, 0x9888888879997888U,
  0x888879c897788889U, 0x69cb687888888888U, 0x898888955a898887U, 0x8889997888879768U,
  0xda77788888888888U, 0x888888888888886aU, 0x8867888888888888U, 0x8888888888888888U,
  0x8888888888888897U, 0x8787788897778888U, 0x788788a887888889U, 0x78a887888779ba77U,
  0x8888888897878888U, 0x8878a87788888888U, 0x8787888887888888U, 0x8888888888888889U,
  0x8888888888888888U, 0x8988889667988888U, 0x8889579888888668U, 0xa888888788888888U,
  0x8888877788888877U, 0x8888888888888888U, 0x898888aa37989889U, 0x8888888888888768U,
  0x7887888888888888U, 0x8888994797878887U, 0x889988888888a788U, 0x8888888888888888U,
  0x8899577778878888U, 0x9a88888888a88888U, 0x7887888888888887U, 0x8888888888886a78U,
  0x8888888888778888U, 0x8988778878888888U, 0x787888889a479798U, 0x8878888888888888U,
  0x889887888887a978U, 0x6888888879787888U, 0x8879988788876adbU, 0x7788888888888888U,
  0x8888798888888888U, 0x8888888888876978U, 0x8788888878888888U, 0x888a3a7878878787U,
  0x8888888888888888U, 0x8887797977788888U, 0x7889788887897877U, 0x88888878a9788888U,
  0x8889787778888887U, 0xa887888878b88788U, 0x8887888987888878U, 0x88888888888a8887U,
  0x7788888987878888U, 0x888a6787888878b7U, 0xd987888888888888U, 0x888887687878877aU,
  0x994a787887797978U, 0x8888888888888888U, 0x888a878788898897U, 0x8888888888888888U,
  0x888887a898888888U, 0x7879788887876788U, 0x8888888978777888U, 0x8889a79788888888U,
  0xa88788889a589798U, 0x87887aaa77788889U, 0x8899788888886887U, 0x9888887a5b688887U,
  0x8888888888888677U, 0x8788888888888888U, 0x8888966788778887U, 0x9867888887888888U,
  0x8888887af8868888U, 0x8879797878888888U, 0x6887888888888888U, 0x8888875788888899U,
  0x8998888888866889U, 0x7988888888888888U, 0x8877a88777887759U, 0x8988788888888888U,
  0x8888888888888886U, 0x8788888878799978U, 0x8888888778888888U, 0x8888888888888888U,
  0x7797888888888888U, 0x888888888888888aU, 0x7888787888876878U, 0x8788888777888888U,
  0x8879c98788888987U, 0x5b69788888888888U, 0x788888888888887aU, 0x8967978888879878U,
  0x9787878888888888U, 0x88a5168988888767U, 0x888888886bab6888U, 0x8888888888888888U,
  0x8888888888886888U, 0x8888888888888888U, 0x8879997888888777U, 0x8788888889888888U,
  0x8888876798888887U, 0x87987888787a5b68U, 0x8888888786988888U, 0x8787a78788888888U,
  0xb597888986b86778U, 0x8888887888888889U, 0x8888888888877888U, 0x77788778a7878888U,
  0x87888888888879b8U, 0x8888888869db6888U, 0x8788889888888888U, 0x7999878888888888U,
  0x7788888888888888U, 0x878888888888797aU, 0x8888888869cb6878U, 0x8888888888888888U,
  0x9768888888887888U, 0x8888888988888888U, 0x8887788888887888U, 0x888888886aba7888U,
  0x8887888888888888U, 0x877888888786a988U, 0x7988888786988888U, 0x8788697878887869U,
  0x8888888888898888U, 0x8888888888888888U, 0x8858888888887888U, 0x8888888778888888U,
  0x8888888888888888U, 0x7878788788787888U, 0x8888869697888888U, 0x8888888888888888U,
  0x8788888888888888U, 0x88796a7888887af8U, 0x8888888897779888U, 0x88886acb68888888U,
  0x9666988888887888U, 0x7888889967888888U, 0x888888888888787aU, 0x97a788887787888U,
  0x88886a6b68788896U, 0x869a888888888878U, 0x9888888888888888U, 0x8788888888888866U,
  0xb797888878a88778U, 0x8888887888888889U, 0xa665988888888888U, 0x7788888888888888U,
  0x8879a978888889a8U, 0x8888888896569988U, 0x8888877788887888U, 0x8789888888888888U,
  0x8888888888888888U, 0x8889989788888878U, 0x6988888788888888U, 0x8888888888888886U,
  0x8888888888878888U, 0x8888878888888888U, 0x8887888888788767U, 0xa987888887778888U,
  0x8888798987788879U, 0x8978788887889978U, 0x7878889766988888U, 0x8886a69888888788U,
  0x998788886aab6888U, 0x888878b777888889U, 0x9797888888888888U, 0x88888876a9888888U,
  0x8888888888888888U, 0xc797888888888888U, 0x8888888888888889U, 0x7997878888888888U,
  0x8888888888888888U, 0x8878988778888888U, 0x8888888888878888U, 0x8888869988788888U,
  0x8888888888899987U, 0x8888887af7978888U, 0x8889898788888888U, 0x8888888888778888U,
  0x8888889887888888U, 0x77a8788888a655a8U, 0x8888888878888888U, 0x8888888888888888U,
  0x4797888988978888U, 0x888888888888889bU, 0x9747988888888888U, 0xa8888878a8878888U,
  0x888888888888a535U, 0x8797888888888888U, 0x88889a4997888889U, 0x8878788888888888U,
  0x3d17fd1dbd6d8ae2U, 0xbda1a9903e2efb5aU, 0x3cf796feU, 0xbdeab50bbd704dd6U,
  0xbe3d38fdU, 0xbd6362dfbc219d32U, 0x3c2f99f8bd2990a6U, 0xbd2434c700000000U,
  0x3cecde0b3bc41c1eU, 0x3da423e0bbf14400U, 0x0U, 0xbde7e57dU,
  0x3c7537d800000000U, 0x3c615746U, 0xbd8d4783bbf79aaaU, 0xbcb1195abc2107cfU,
  0xbc3d6d77bdaa6ba6U, 0x3a08e04e00000000U, 0xbe0668beU, 0x3cc26f0800000000U,
  0xbdc96d70bc5b4933U, 0x3cd7ebaa00000000U, 0xbcd5d77cbe872211U, 0x3d1387e9bd567c66U,
  0xbccf9c9ebd5ba326U, 0x0U, 0x0U, 0xbd254e7e00000000U,
  0xbd7aeb7a3d55840fU, 0xbdc81c2000000000U, 0xbd104deeU, 0x0U,
  0xbd3da39abc95e8abU, 0xbdbd2e7500000000U, 0xbe078750bb79a5adU, 0xbd58fe45bdf00cd5U,
  0xbd974545bda86618U, 0xbcff382f00000000U, 0xbda3d35600000000U, 0xbdd1c37eU,
  0xbc8cae55U, 0xbd29a1bcbd52cf56U, 0xbe2bf50fbe1295b1U, 0xbce17c0abd9b8e74U,
  0xbc48be63bda628a6U, 0xbd3d827d3c7c916fU, 0xbdf229a3bde515d1U, 0xbdb169b4bdb9db99U,
  0xbcddaae9bdc4d539U, 0xbbaaff1f00000000U, 0x3d6ac7daU, 0xbdb82605bc456c32U,
  0xbd68918d3dbe0eecU, 0xbd95758f00000000U, 0xbe0acc2cU, 0xbe01ce74bd4353c4U,
  0xbc21fd0bbd146e89U, 0xbd34c570U, 0xbb960258bced632bU, 0x3d64b67500000000U,
  0xbc61a24400000000U, 0xbdc12d69be2d2446U, 0x0U, 0xbcfc492bbda4f0d5U,
  0xbcd64d60U, 0xbcfa6745bd7f46c1U, 0xbd80117200000000U, 0x3db077e9bdee18c2U,
  0xbd543881U, 0xbda5b2e000000000U, 0xbd9f4aa0bdfe0c3dU, 0xbda29f06be1a02cbU,
  0x3e1470af00000000U, 0xbcd9efe6U, 0xbcd234b0U, 0x0U,
  0x3d1f7547bcce24e1U, 0xbd9ec6b3be06494fU, 0xbd86fd2f00000000U, 0xbe1667bdU,
  0xbe0674d8bde7dc74U, 0x0U, 0xbc1ced58be092ebdU, 0xbdd1bfcfbe06eed3U,
  0xbd02e59300000000U, 0xbb4c1f37bc1b7e3aU, 0xbe314a0fbd95e12bU, 0xbd6deedebbc3f57cU,
  0xbdb360103d202dbcU, 0xbdb9b4b13c61c3e4U, 0xbd339b9cbd8e1b78U, 0xbe06402ebc2117d2U,
  0xbb7639a1bd0399b7U, 0xbc1eff5100000000U, 0xbd809babU, 0xbda22d49bba709f0U,
  0xbdded0d2bc793516U, 0xbd8e25a43dd47be4U, 0xbe4442f7U, 0xbc03450400000000U,
  0xbd91b075U, 0xbdcdfbd4bd45168fU, 0xbd5d3c00bd545da4U, 0xbe04849400000000U,
  0xbd34e41ebdc335f1U, 0xbdd6b977U, 0xbd810826U, 0xbcb805f800000000U,
  0xbd9afe48bbbc756eU, 0xbb98c0f600000000U, 0xbd3f1df3be030e59U, 0xbdfd3949bdd4855cU,
  0x3ccbc633U, 0xbd918d96bdbcab6eU, 0xbce8a17bU, 0x3b02dc39U,
  0xbdd6aa713ce1a92fU, 0x3cea796fU, 0xbd2da074bdceee2dU, 0x0U,
  0xbd9eb0063e4934d0U, 0x0U, 0x3deba7b2bcc762daU, 0xbd94ac72bd0d9b37U,
  0xbd82863e00000000U, 0xbd576a42be7e1b5eU, 0xbc41f9c6bdf6a645U, 0xbe2555b6U,
  0xbc1be953bdd0d6d1U, 0x3e420df8bdbaecd8U, 0xbdb7e33aU, 0xbd8972b83c2b5025U,
  0xbd86f7acbdfcd717U, 0xbe0963e2U, 0xbd30f392bc5aaf82U, 0xbd97e218U,
  0xbdcf4c58bca2edcfU, 0xbe152f11U, 0xbe0f553400000000U, 0xbdec5656be25c223U,
  0xbdd4a5b6bda9526eU, 0xbd9b38d9be031eb2U, 0xbd802d21bd8cd0ceU, 0xbdb79a0bU,
  0xbdc2d3c13d008fbbU, 0xbc282b093d83c2c7U, 0xbe070b9ebb34447cU, 0xbe3b29c0bd2b635dU,
  0xbd31786f00000000U, 0x3e14acc1U, 0xbd0d7c4cbbc498ccU, 0xbdbc4fd3bd53b0caU,
  0xbe161b4bU, 0x3dd65e6dbd507163U, 0xbdc4dd773b45f3c8U, 0xbda98909bd0156d7U,
  0xbb4e9c40be121865U, 0xbc540cc000000000U, 0xbdfee0053c15b6f3U, 0xbdb6a84300000000U,
  0x3da985c9U, 0xbe1aabc6U, 0xbd843bcb3dbabf23U, 0xbcf2c416bdc25462U,
  0xbdcba0d8bd883c6aU, 0xbe049e4eU, 0xbbf65f58be125c3cU, 0xbd44034fbd2f243eU,
  0xbb9db0bbbd3a3ec2U, 0xbbe3bc0100000000U, 0x3e0fbe1dU, 0xbd8388dbbd93d1e2U,
  0xbc933ce4bd4a3f58U, 0xbd144f76U, 0xbb0a5e9cbe0bafd1U, 0x3bdc4149bde12cd2U,
  0xbdb9f36800000000U, 0xbda33e4fbdff2873U, 0x0U, 0xbcbd6db3U,
  0xbda763e900000000U, 0xbce6f2cebdb9f20fU, 0x3c920e4dbd928c00U, 0xbd00ba7fbdcec263U,
  0xbcd1fa51U, 0xbeac0ae4bda5be1bU, 0xbd18f2313dd160faU, 0xbda555faU,
  0xbe6ad107bdc53894U, 0xbdc87c1600000000U, 0xbcdf673a00000000U, 0xbd61309fbda76c7bU,
  0xbd02a72100000000U, 0xbde8f0c900000000U, 0x0U, 0xbcf54ecbbd3c969dU,
  0xbd5d631dbd9e4f28U, 0xbd25fc2ebc49518eU, 0x0U, 0xbd8bbc0cbdc2a418U,
  0xbddd06373d07710eU, 0xbde34895be335540U, 0xbbf01444U, 0xbcefc089bd3a4116U,
  0xbb8dcee5bd94e287U, 0xbde22f94bd80f306U, 0xbaa65bddbddca56dU, 0x0U,
  0x3bfd58ba00000000U, 0x3c1a636dbd864485U, 0xbd90a81e00000000U, 0x3d84362f3a1c981eU,
  0xbdc1f1eb3cfa2b60U, 0xbd83707abcb6ab00U, 0xbdeaf0b9be288c7bU, 0xbdd0f0b3bd3d132bU,
  0xbda1b4b200000000U, 0xbdfff01d00000000U, 0xbd387643bd771523U, 0x3d783b3c00000000U,
  0xbd39b9ee00000000U, 0xbd1e061ebdcbaa3dU, 0xbd6a055abbb4e35dU, 0xbc00076400000000U,
  0xbd0486a4bba93537U, 0xbcc7341dU, 0xbba8726abdc5dcbbU, 0xbd38effcU,
  0xbdaf19e3bd7c61aaU, 0xbd925467bc95f1c0U, 0xbdfcdfd4bdd23db5U, 0xbdb9d973bd6d4a73U,
  0xbdf65f02bd11d375U, 0xbd0db31939748afbU, 0xbd6d35d8bdbeb940U, 0xbd53d45e00000000U,
  0xbb144067bd733110U, 0xbbb77c1b00000000U, 0xbc2890d7U, 0xbcf7d170ba12b02cU,
  0x0U, 0xbc8decbbbe0f906dU, 0xbe01c91f00000000U, 0xbd962db5U,
  0x3d80f6adU, 0x3c70d26fbc37d737U, 0xbd46db5200000000U, 0xbca7651ebc59252cU,
  0xbbf711f2U, 0xbd33d9cabd5b973fU, 0x3e3f6010U, 0xbd9213fc00000000U,
  0xbcb0f9e5bd8d0867U, 0x0U, 0x3dd7202bbcc2590cU, 0xbdddb0c200000000U,
  0xbf451069bf6a1f4fU, 0xbeee748fbf22c8d9U, 0xbe4200dcbea23d55U, 0xbd7956febdd06eb0U,
  0x3d0d3beebc387787U, 0x3e23aaea3d927e4bU, 0x3eea0d7a3e9dafafU, 0x3f49ad143f1af061U,
  0x797688979a889687U, 0x877798a799798878U, 0x998aa99986779777U, 0x9867988988788879U,
  0x997797a99a787997U, 0xa98777a799a98788U, 0x988988879988997aU, 0x97a799998979a799U,
  0x869a9887787a67a8U, 0x899977966967a798U, 0x9677a889a7988695U, 0xa6679a68987a9876U,
  0xa7a7a98887777999U, 0x68a6767998689697U, 0x998689988a978877U, 0xa977a98989997977U,
  0x888789a8aaa8998aU, 0xa789899768788898U, 0x977887a979888778U, 0x78a78a798996766aU,
  0x8779698a86a79778U, 0x867a688889a87989U, 0x8888986a77788687U, 0x7878986987978779U,
  0x8979986877888988U, 0xa787aa7778a8a779U, 0x78a98899a5a9a6a7U, 0x977678878697a7aaU,
  0x8988b779896a7999U, 0x8a699a9779966789U, 0xaa7766679898a778U, 0x97699799779a7877U,
  0x6a79966a7a7887a6U, 0x8777787a898a6785U, 0x989a89a78668a969U, 0x7a878a87aa977876U,
  0x8787989877779798U, 0x66687898a7666868U, 0xa888699aa8a9a698U, 0x8a7a597887b8778aU,
  0x6866a87898989787U, 0x7a79998677899a76U, 0x788799879998a8a9U, 0xa978798888879789U,
  0xa7998a987a777a97U, 0x67a7899a9aa8787aU, 0x8896877678899a97U, 0x9797898979798769U,
  0x788868869999a899U, 0x7a87877678977889U, 0x78a6a88a7a7a97a9U, 0x889887689a958677U,
  0x77a78878a6888768U, 0x687799a867789769U, 0x79a8687a789a78a7U, 0x96a867987a77867aU,
  0x686877787aa89796U, 0x97a88a7886889878U, 0x9969868786766887U, 0x968a899678797779U,
  0x99a97986898889a8U, 0x9978887977899869U, 0x669a998997897978U, 0x9867986697897989U,
  0x7a98883988997a78U, 0xa978568978779878U, 0xa858789aa87797a7U, 0x7a9788a88978884aU,
  0x676888985998a768U, 0x7a78888998888689U, 0x86878787a7888998U, 0x897886a767a88789U,
  0x7a68aa786aaa775aU, 0x969768a997597988U, 0xaa8586a88aa8797aU, 0x9b68779898787799U,
  0x847779989aa9aa6aU, 0x57a7a67a9767779aU, 0x7689aaa9a798778aU, 0x689a98797889789aU,
  0x799888636899886aU, 0xb967a98796799878U, 0x699a798897889a87U, 0x79958a679aa78989U,
  0x88a7678987778889U, 0xa98aa9a88a798797U, 0x7799777799978587U, 0x78989588798a8587U,
  0x98a7a77898799398U, 0x88786667ab797889U, 0x8877778779757a88U, 0x8899a87978978889U,
  0x897998a7a9889879U, 0x79a977986899888aU, 0xb766978a898a8698U, 0x96689aab98876998U,
  0x89789a88aa976899U, 0x9879887999967589U, 0x697a778788699888U, 0x8777786769887888U,
  0xa97aa9a978879968U, 0x8a77aa8a6a8a77a9U, 0x89a988779797896aU, 0x878888898677a787U,
  0x98689a8978896777U, 0x87a7789899778889U, 0x898977a997799787U, 0xa979978886777979U,
  0x99679697778a8a88U, 0x789a867979a99769U, 0x877968778777888aU, 0x8789a88977879888U,
  0x77879896a8788987U, 0x7a7a998a87799797U, 0x87868a767a8a8877U, 0xa8899788888a7967U,
  0x97aaaaa668a78768U, 0x9998776796978977U, 0x8aa66a679a788687U, 0x9a8a9a887a779778U,
  0x878a98a888a98899U, 0x888979aa67876789U, 0xa6678a9666789878U, 0x8878a897a7969898U,
  0xa9a777999aa8879aU, 0xaa77a799a7789779U, 0x78a69768997979aaU, 0x7789799777687997U,
  0x8886a68a876aaa67U, 0x87889a9967a98788U, 0x67a878a7889a7798U, 0x8a676a7a99a8a869U,
  0x77888879a776968aU, 0x787a99a87a86987aU, 0x87a7977787977999U, 0x8889677aa988978aU,
  0x8aa99987aa877889U, 0x7a87898997987797U, 0x78778976a9788977U, 0xa9868a6977786a79U,
  0x879699a9a89a766aU, 0xa6787a989aa89779U, 0x97a8778698688868U, 0x67a9778896967779U,
  0x88987786766a7a89U, 0x7a7a896967868897U, 0x9897a6a977797897U, 0x99789a8a98888869U,
  0x88997a989a9a7759U, 0x8799a888aa876988U, 0x897667777a977979U, 0x79a7a87778776677U,
  0x969a9867789aa978U, 0x99a88999769a7888U, 0x987a789a75977697U, 0x9a9987aa68779997U,
  0x7aa79876987a7988U, 0x8787a999798a8889U, 0x78a878699796a999U, 0xa787677689a88977U,
  0x88998999787a7a98U, 0xa789888a8787777aU, 0x8999769896997a88U, 0x7869997877788987U,
  0x7989a8987a868889U, 0x8679988987a97a99U, 0x9997779779887789U, 0x889a87a79777999aU,
  0x68888a97868976a7U, 0xa8a87a977a689769U, 0x868a788689997a66U, 0x8898886a89998968U,
  0x76a99aa8a7766896U, 0x6987887aa7689779U, 0xa79767678aa87988U, 0x8997889aa698aa97U,
  0x98979799988a9886U, 0x786888a6789a7a88U, 0xa896aa889877978aU, 0x887a889987687977U,
  0x66aa97a7a98aa967U, 0x669a7966a998a988U, 0x799a68a797977a7aU, 0x7998989a97867aa7U,
  0xa87778a797787777U, 0x7867a88899797977U, 0x8769a98977986798U, 0x797978898877a878U,
  0x76796789876a98a9U, 0x8977888877887999U, 0x699699689876aaa7U, 0x8667769688887a88U,
  0x977888ba89978aa7U, 0x86878a7676779676U, 0x99b99889668aaa6aU, 0x7a67aa698a7a9868U,
  0xaaa8787989aaa978U, 0x7978676986899889U, 0x7877876878779968U, 0x98a8b98786889999U,
  0xaa787a897767a8aaU, 0xaa789877aa698aa7U, 0x8789a798a66a8aa6U, 0xa9a8a6969a88a769U,
  0x77a79a8889787699U, 0x7979789699898a68U, 0x78967ab9879767a9U, 0x997869a888867786U,
  0x8a8867a79a998779U, 0x6a7799aa76788778U, 0x887979a6875a7878U, 0x7677a99897989888U,
  0x798899878888a787U, 0x798876a87a978887U, 0x8865a77787787899U, 0x9798877879887877U,
  0x8a979778999a7978U, 0x8799769998777689U, 0x979868798776a976U, 0x88a7769777679686U,
  0xa799797777999977U, 0xa9699998a8aa7a88U, 0x86788868a9666697U, 0x8699a88686977aa9U,
  0x8886996887689978U, 0xa777977797799787U, 0x7a778677a8a78778U, 0xa77a978779989779U,
  0x99a8769878769787U, 0x797776996a777676U, 0x889978987987a7a8U, 0x77778778799a89a8U,
  0x77999797aa877a78U, 0x977a88698a6a8a88U, 0xa888a79879898977U, 0xa9888898697a8a59U,
  0x89878877a877779aU, 0x69786797a9877878U, 0x788679a78887a978U, 0x788786978978a9aaU,
  0x788886778a679667U, 0x787687a787867976U, 0x8876877787897a68U, 0xa8a9aa9878789688U,
  0xa8aa67867988a787U, 0x89996a987987887aU, 0xa898a8a79977687aU, 0x78a779979a78aa99U,
  0x9788788aa7788996U, 0xa789a89677777888U, 0x896677a876789978U, 0x89aa87a777878799U,
  0x8a8698789977a879U, 0x9877987a88aa687aU, 0x8887988788a88868U, 0x8887798686887779U,
  0x96987977a8887968U, 0x898899a968a8a679U, 0x78a9788977978778U, 0x999a78998897a8a7U,
  0x77a97a7897a69888U, 0x78867887a6978777U, 0x7977a76a99699a88U, 0x867a788a89889a6aU,
  0x796a7798a88a797aU, 0x8a8a78998867a78aU, 0x888989a6787a9989U, 0x8787aa978aa76788U,
  0x777798997a7a8a97U, 0x69987877879a9a88U, 0xa797786779879888U, 0x787a889779777a66U,
  0x8866877778898699U, 0x7787788aa8779878U, 0xa8788aa77a799986U, 0x67798a99877a8998U,
  0xa9a9a8977787a868U, 0x8868a7a79797877aU, 0x9a768678787a6888U, 0xa989778799969898U,
  0x7997998888867988U, 0x8aaa98897979767aU, 0x8779979987887896U, 0x999897a8a979988aU,
  0x998789896a9778a8U, 0x89697897a88a9777U, 0x9989776878897788U, 0x7798788688a99988U,
  0x8896795a78878898U, 0xa98777778aa89478U, 0x7a698887a479a679U, 0x98979699877a8759U,
  0x67779988999a9887U, 0xa8899aa8aa78a988U, 0xa8878899777a7aa9U, 0x899ab797779777a8U,
  0x9799989779a879baU, 0x79a7999997388a97U, 0x9886a698a6978979U, 0xa68a9889a8969a67U,
  0x9698a8688a88ab89U, 0x6a98a99879586a99U, 0x7a888aaa98968977U, 0x689a6a9787779787U,
  0x76a878847a797888U, 0x8997898698787aa7U, 0x88a99aaa88697898U, 0x9899778876979779U,
  0x98698a88979a7748U, 0xa8998a968978989aU, 0x9879a87a7778b6a9U, 0x7997a5a7a76696a7U,
  0x998a9898898a7599U, 0xa78978899aa98788U, 0x79a99778aa85a775U, 0x78a779789a6899a6U,
  0x8799999898898977U, 0x9958769aaa988788U, 0xb698884898987799U, 0x8868797b99798899U,
  0x778aa888977a7897U, 0x99897a8888888687U, 0x7879a777767998a7U, 0x8787987777798799U,
  0x979a967979977788U, 0x9997999aa7897a89U, 0x67a9aa667889976aU, 0x86776899889a8767U,
  0x99a7698a777a7aaaU, 0x8a9a99969a878a7aU, 0xaa8aaa79a8697788U, 0x7687a8967879a779U,
  0x789767aaa79766a7U, 0x87997a78a8988877U, 0x8aa7978786a679a9U, 0x778687a988978869U,
  0x98aaa7787a897797U, 0x87a699887aa97a79U, 0x896787997889789aU, 0xa999a887787a8a89U,
  0x8a9a7a987a98997aU, 0x7a999788a798976aU, 0x777889888aaa8897U, 0x898a6797a97aa7a8U,
  0x6766a97aa99997a7U, 0x8a87978887a87978U, 0xa99978889689a7a8U, 0xa9a98996778987a7U,
  0x787a6898a7898977U, 0x886a7797a8787889U, 0x68a887779aa7a989U, 0x77679878886788a7U,
  0x87aa9a97969a8a8aU, 0x889988987a988789U, 0x8aa896a87876aa7aU, 0x88897777a9a97989U,
  0x777786969776779aU, 0x9a78689779869a98U, 0x88b98878a8978a77U, 0x9797a77779777979U,
  0x9a9886a687777997U, 0x878769a88779a997U, 0x978b9687676a797bU, 0x9797987999978979U,
  0xa9a87788a78a86a7U, 0x6977879689879988U, 0x8a9877a7a777697aU, 0x9a99678877a76889U,
  0x967a998ab899979aU, 0x7a999a6799779979U, 0x977778a79a8a6889U, 0xa8a69786769a8989U,
  0x877989879877a989U, 0xa6a9a788678a7787U, 0x79779a7a8a88a898U, 0x78878a7999678b97U,
  0x779888669a887997U, 0x78a8879889a8aa7aU, 0xa766879896897977U, 0x778867a898689987U,
  0xa6999979798a97a9U, 0x79988a98887a8767U, 0x5898a987897699a8U, 0x98687795897866a7U,
  0x7886a76799689879U, 0x777888a9a9778778U, 0x9a5a977778879aa7U, 0x778a878687a8a788U,
  0x99789a8979677986U, 0x7788968667797797U, 0x87a88989a9987a99U, 0x997987897a879879U,
  0x7988978a76968778U, 0x89787678798a8899U, 0x899989999778a876U, 0x789997a987989787U,
  0x89a79979a88a889aU, 0x8a8877aaa9797899U, 0x98998a6696977787U, 0xa87977a8898a8a98U,
  0x88799a7898778689U, 0x98896787a87a8798U, 0x9a9aa799877a7998U, 0x6778a8877778689aU,
  0x897a9999a79a7867U, 0xa887887787789779U, 0x787988a777977a88U, 0x879788a8a96879aaU,
  0x6a979a78798aa997U, 0xa98779798779a7a8U, 0x6778999996887777U, 0x9878999886989699U,
  0x8978677a6a787899U, 0x88686a869a697aa7U, 0x7a88768888989798U, 0x779977a8877876a7U,
  0xa799777888696778U, 0x7797688688877696U, 0x9b98a787969999a6U, 0x9a968a97898aa669U,
  0xa87799768777877aU, 0x8777a79a97869877U, 0xb89997798998a979U, 0x87a987a986aa8878U,
  0x987a78879a976769U, 0x9a879798a7897979U, 0x9aa999797a6a9a86U, 0x79977a97897a7986U,
  0x9996a6a678787a68U, 0x697a797768977786U, 0xa96a69b69979a788U, 0x9797aa7766797a79U,
  0x8aa68966b7a6b697U, 0x7887778699989977U, 0x987698a899689a78U, 0x85798a687b77aa87U,
  0x67a7a88876a9897aU, 0x8a8aa9987a879788U, 0x7997978a898aa778U, 0x998878a8897868baU,
  0x868aa77877987676U, 0x99b977a79799869aU, 0x9988889a97899779U, 0x6a9678a797777996U,
  0x9798a87a88979998U, 0x8a799769879a6a79U, 0x7977976989799688U, 0x79679688a9798679U,
  0x89a7a966a67a8869U, 0x7a6797a97888978aU, 0x9a9787aa98787787U, 0x9898896676898a6aU,
  0x67899896a9977798U, 0xa7978688a97868a6U, 0xa8a797987778a9aaU, 0x898779a6a7786877U,
  0x888776897a78aa77U, 0x9a9876887a989979U, 0x8999879987798788U, 0x8897789979aa978aU,
  0x8a99aaaa898a7787U, 0x98987789a9a6799aU, 0x97aa79a997787887U, 0x88a689a86a976778U,
  0x7a7999a6a7897697U, 0xa776aa877787688aU, 0x7988aa7687778989U, 0x677a8898896a9767U,
  0x7887899688887669U, 0x7687979778867987U, 0xa9869a7979776699U, 0x888888a99767a677U,
  0x7789969789988888U, 0xa79678989a9a7876U, 0x986aa999788776a6U, 0x86779999978a8878U,
  0x69888687878a9998U, 0x796aa78899896687U, 0x67888869689697a7U, 0xa88a9a96a6697aa8U,
  0x8999a87976667869U, 0x68666a9887aa8788U, 0x786a867aa6879799U, 0x9a698777a8a97765U,
  0x9898877869699878U, 0x8976988897879797U, 0x7899768979887a79U, 0x7979a98888b9a778U,
  0x7998879a899767a7U, 0x6a866777875789a7U, 0x779ca7779a999868U, 0x778a7797789aa759U,
  0xa665796997898a8aU, 0x6869779797588988U, 0x98686768a89a7678U, 0x8779779787987889U,
  0x8787979786898888U, 0x7979677668789a87U, 0x7997aa7969678779U, 0x76a89797a9876777U,
  0x9797877877a86758U, 0x7899879697988a77U, 0x799988888989a7a9U, 0x979876999867989aU,
  0x977898899889a878U, 0x8786999a787aa888U, 0x98a697a875a77995U, 0x96899a788786a896U,
  0x9696787a69aa76aaU, 0x76777789a8776686U, 0x868a97787989a9a6U, 0x8676aa6996877a8aU,
  0x87aa878887687988U, 0x978897a876799778U, 0x96988877759a79a9U, 0x7989977699879879U,
  0x99a9a98876977787U, 0x7879668867768769U, 0x8a88a7979797a6a7U, 0x8688787989aa7897U,
  0x998a777988796887U, 0x96997686878a8aa7U, 0x7977988788678a97U, 0xa879998a97978a66U,
  0xa7858a7868899987U, 0x768aa67789a6a899U, 0x778a99a896887799U, 0xa77a98686779989aU,
  0x8a79879767998786U, 0x6a9886987677a989U, 0x6a6868aa88986a89U, 0x6699a7969776987aU,
  0x89a9897998789767U, 0x899aaa7898977899U, 0x869667897a87778aU, 0x789a979879689788U,
  0x979886787889977aU, 0x996a868a79789a97U, 0x99997879759877a7U, 0x78798897a887a987U,
  0x99687987a7978798U, 0x79978a6979887788U, 0x66a8679899a9a788U, 0x6a98897776868978U,
  0x8688786776686888U, 0x889a7a9998777886U, 0x9998a78776997777U, 0x977a9a8976898998U,
  0x7a79899998987a68U, 0x9a768989a9876898U, 0x88787898a988aa97U, 0xa698789aa7a78978U,
  0xa78a7a978a9a78aaU, 0x798987a988998787U, 0x69786998677a9769U, 0x9777a99687879a68U,
  0x7798968897786898U, 0x7a899797a789799aU, 0x9a897666979777aaU, 0x8a97aa986a778689U,
  0x787898a87898a988U, 0x8796869798a88998U, 0x8787aa98788777a8U, 0x99888a98a8877878U,
  0x6a77988a7a888a58U, 0xa77887a798a8788aU, 0x7697788a89a96678U, 0x87a879a77a788887U,
  0x8797978988a79879U, 0x977a76798a899987U, 0x99787a89a7a779a8U, 0x9778a777968a9778U,
  0x8789a99a969a9898U, 0x9877a87989868887U, 0x877888679a787798U, 0x7a887aa8998786a9U,
  0x79a8aa88aa6a97a7U, 0x9699888687aa97a8U, 0x777987768697a796U, 0x8879a879a89a7897U,
  0x989977aaa9979a67U, 0x89998a8797a7997aU, 0xa978787778a88979U, 0x878a799996897889U,
  0x7a96a89a799887a9U, 0x787989888879a979U, 0x877668798798a768U, 0x7978879968889677U,
  0xa899779a89a86798U, 0x77977879978a878aU, 0x999897877a779689U, 0x9a8a78887a999677U,
  0x97aa897689788876U, 0x9a79997788799878U, 0x8999888698888798U, 0x99678a9797797689U,
  0x78976988a7887978U, 0x7776a98788977779U, 0x9897977a68876768U, 0x7777a7889a768877U,
  0x89a986798a789678U, 0x87a887878998776aU, 0x8669a76975a79876U, 0x86a76968a99979a9U,
  0x79a7a966669877a8U, 0x767a7998878a8999U, 0x69887877a999868aU, 0x79769799a978a989U,
  0x89a79988a6885995U, 0x879ab788a877a966U, 0x769a757998879867U, 0x778798a888a888b8U,
  0x7a7689796677a687U, 0x8788a997998978a7U, 0x7a989a578a88a888U, 0x9b875aa6a96a98a9U,
  0x78a9a97a97996aaaU, 0x77968668989889a5U, 0xa766a7a88a877978U, 0x98998988a6657997U,
  0x8677669978776a67U, 0x9768768977aa9998U, 0xa888899779787888U, 0x97787977a7987687U,
  0x77a9889999a97666U, 0x888987a978978a66U, 0xa896897a978a9779U, 0x89988788a998a796U,
  0x9889aaa79998a789U, 0x989877686989997aU, 0x8aa9798987a84897U, 0x76789988a7a99799U,
  0x688a878697a69767U, 0x7889799a7aa968a9U, 0x9846688889977898U, 0xa68999a889a78897U,
  0x76a8989a878a878aU, 0x887a7968a8679a89U, 0x97a7879778a88979U, 0x9786a8987868877aU,
  0x68a89887a9798876U, 0x9799a8888a8a8669U, 0x9879a8867679789aU, 0x7a77aa7998889987U,
  0x7898879887878787U, 0x96a797a989968887U, 0x8898987778767a98U, 0x96a88a9886678a68U,
  0x78a9aaa878776886U, 0x888898777a898aaaU, 0x7976887aa85a9876U, 0xa78689a987996689U,
  0x7998899667796a8aU, 0x9778aa77888778a9U, 0xa88779a6aaa68987U, 0x9778a7999779a977U,
  0xa7998a9787879776U, 0xa8779a9698a98899U, 0x89aa9887aa899897U, 0xa667879778876879U,
  0x9967788686879798U, 0x888897799778a988U, 0x988587a88878969aU, 0x977996676977767aU,
  0xa89686a88978a898U, 0x7978697a99987a98U, 0x877677879778a786U, 0x8886a7987668a789U,
  0x8989797888878a96U, 0x6879789a99a78788U, 0x8878a8788899a777U, 0x86a89967999a98a9U,
  0xa796977a9a899797U, 0xa979799a7997aa96U, 0xa6aaa6a996878788U, 0x8776977879a8aa99U,
  0x9a6889777a85966aU, 0x7768987aa987979aU, 0x968788699687977aU, 0xa887889789aa9999U,
  0x787878a87aa79aa7U, 0xa9aaa9a9a8786886U, 0xa8989787885979a9U, 0xa9987899a77a6867U,
  0x97a7a9899aa77979U, 0x968a887988777778U, 0x987886887777a78aU, 0x777797a978669898U,
  0x68a8879777878899U, 0x8a779978687878aaU, 0x78a877aa788a7a97U, 0x6988876789788799U,
  0x876779aa88989887U, 0x89a9a8a987688987U, 0x68a868779aa77987U, 0x766a8878aa567a77U,
  0x998a989878778a77U, 0x8877898886787886U, 0xa6796979a7969666U, 0x76aaa89a79888797U,
  0x9a77a89988a87799U, 0x87589988789a8878U, 0x977a96677898898aU, 0x7866a9979a777789U,
  0x88a8796766799987U, 0xa88a9777aa888687U, 0x8a69897895689778U, 0x9778a78a7977a777U,
  0x6878678699877788U, 0x8888a97789797a87U, 0xa988889899a97769U, 0x876867a79887a699U,
  0x896a77869897687aU, 0x977aa77a78988778U, 0x888688977769a976U, 0x688799a988788769U,
  0xa896998877798777U, 0x888987788678899aU, 0xa77779867778877aU, 0x8798899868968868U,
  0x788688a7778997a7U, 0x9a689987a8999a79U, 0x8a879aa7898a7969U, 0xa76a778778a999a8U,
  0xa7877a78a9768888U, 0x7778a898a8999898U, 0x889a86976a9858aaU, 0x878a996877768687U,
  0x6879878997997798U, 0xaa79a87688889799U, 0x7788876996788a97U, 0x9a8a78a6676a68a7U,
  0x788a87688789aa77U, 0x98679aa898678979U, 0x89888a7877789887U, 0xa779a776a9876697U,
  0xa966877987698679U, 0x789978796a78a695U, 0x778a78a797888977U, 0x989aa899968a8769U,
  0x9877a9a96a67a887U, 0x96897a7999877777U, 0x879a8a67a9aa896aU, 0x98a77886a889788aU,
  0x7aa9987a67895aa7U, 0x8aa66878697a7a96U, 0x888aa696687aa986U, 0xaa87a77aa7996879U,
  0x67678798777a79a7U, 0x9799a668956a6887U, 0x69878a67888a6678U, 0x777787a9797689a9U,
  0x7a877a689a9a8789U, 0x88698798897677a6U, 0xa678a87767867799U, 0x89a98897978a7678U,
  0x88777a7676a96967U, 0x88aa998879887897U, 0x8888a98a799a7988U, 0x8778688677666998U,
  0x8988788a77979878U, 0xa878867796aa7779U, 0xa788997777aa78a7U, 0x977786a97787a898U,
  0x68968989a7786886U, 0x78899a7a69976677U, 0x8997a96989799778U, 0x9796997a89898767U,
  0x78879a9a88a87988U, 0x987a87876a777979U, 0x9aa687a698a6988aU, 0x89798789989aa787U,
  0xa899869a9875a778U, 0x97a888aa68686a78U, 0x8976876998988976U, 0x8999488797a8a978U,
  0x7a9a88a97a777777U, 0x879a9777976a8878U, 0x9989898887aa7798U, 0x797a879778897969U,
  0x977778788a878969U, 0x697a989aa69a7888U, 0x788789999a7a976aU, 0x789968a97869a886U,
  0x98877a8897889888U, 0x8877897a98a667a7U, 0x69968a7a98989779U, 0x878778999689866aU,
  0x9799787768767988U, 0x7a97878668888777U, 0xa986a687888786a9U, 0x899897999a668686U,
  0x878a879868987996U, 0x87a7a86a79a87776U, 0x894867a886897788U, 0x77a799878798aaa7U,
  0x988a89a68797aa97U, 0x6887998779777778U, 0x7a99966a77796897U, 0xa889a79578777988U,
  0x7a7778b796885a86U, 0x999a777899777487U, 0xa9b9967684987a87U, 0x99678a88a8898898U,
  0x9877a69888698799U, 0x9788777997769977U, 0x7777896a797aaa99U, 0xa978a8a888679788U,
  0x8978787986aa9977U, 0x8886898a88889767U, 0x789b978998698a77U, 0x97898687a7877768U,
  0x797589978a896866U, 0xa678a77878799889U, 0x8a89a99aa7997987U, 0x9979597878a78759U,
  0x9798788bb8779699U, 0x7a878978aa988887U, 0x967697a887598a8aU, 0x8868979877699799U,
  0x68978a7878a97857U, 0xa8b99aa89867a877U, 0x9a8799a879a8ba99U, 0x7778a866785795a8U,
  0x8a77a88786a99888U, 0xa8998a77888797a9U, 0x86a9888798a97996U, 0x788979797769a979U,
  0x78788a8997967879U, 0x7a5a896779869887U, 0x6877894867857878U, 0x7695797678686798U,
  0x996a976968899a77U, 0x9978a7998a9a7889U, 0x66888898978a8998U, 0x788778967769a979U,
  0x897aa68967957768U, 0x86a99a9a8876a978U, 0x88979a67a987a987U, 0x9786789776a89a68U,
  0x7776979989898889U, 0xa7a9879897698a79U, 0x99679979a77a788aU, 0xa799a67968878867U,
  0xa69878998a99779aU, 0x689aa789a9a79987U, 0x8aa9a79679887779U, 0x8777777a99a7966aU,
  0x8996999789787a87U, 0x8786699697887867U, 0x79779a7897879798U, 0x86a88897a7a76868U,
  0x887a777889899879U, 0x8787889967997899U, 0x77869a8967a78786U, 0xa98868a8887a8698U,
  0x9888769a77787787U, 0x8977777797987896U, 0x986a7877789aa969U, 0x7aa78a79886778a9U,
  0x89867a8979aa8797U, 0x79588a7869998889U, 0x699768598989786aU, 0x7977a68986a87769U,
  0xa788789969669a96U, 0x7a88a7777a7a7787U, 0x9797758978a77a77U, 0x98788978a7799766U,
  0x6aa7968889889689U, 0x986788a999799698U, 0x9887a9688887a778U, 0x78aa6a989766a87aU,
  0x797788797997796aU, 0x88697688a9668976U, 0x779aa99998888966U, 0x77a8787a897a6876U,
  0x797687a7789858a8U, 0x8779899879896678U, 0x7978698978889678U, 0x8786887a78969888U,
  0x67679a95889aa869U, 0x896798766aa87976U, 0x79a678a76a787896U, 0x8677966777969769U,
  0x8aaa998889887a79U, 0x978879a877a77878U, 0x8688a7a777767a8aU, 0x988987a799688a7aU,
  0x68777a9aa8888877U, 0x8996a987879a7777U, 0x868a68a9a9799787U, 0x8aaa8987a766a698U,
  0x869878a7989aa788U, 0xa79978688798866aU, 0x9aa7787978969aa7U, 0x86967a988a5897a9U,
  0x7a978899796a66a9U, 0x886697889768a698U, 0x9787968998899987U, 0x876778878899a898U,
  0x8789a678a978a6aaU, 0x9a8689999969a999U, 0x88688a889877977aU, 0x78a989a786997979U,
  0x77a978789986aa88U, 0xaaa9a99999a98896U, 0x9888a8a77897aa87U, 0x9a98889897796679U,
  0x7886a98798a79967U, 0x6888a6aa896a7899U, 0x79a9679787776799U, 0x7a978996a666a878U,
  0x887a97968799a677U, 0x788876877a989696U, 0x778678a7698a8aa8U, 0x77887a6897979897U,
  0x7a77878887967767U, 0x76878777987a7a8aU, 0x69a879a878a99778U, 0x89a9a78667797a8aU,
  0x9a7a978a697a9889U, 0xa67867aa9778669aU, 0xa669a89877988879U, 0x9888798777876987U,
  0x7897978896a66aa7U, 0xaa7878798a899799U, 0x6787698a77a99798U, 0x76668a988788979aU,
  0x89778a87876a7a76U, 0x89969697799a8899U, 0x96a879aaa777779aU, 0x7a779798987a9979U,
  0x877989788878a767U, 0x799a7798787979a8U, 0x896aa76aa6a87a79U, 0x79a8667887889787U,
  0x7a99978a87886889U, 0x8a887997a877a897U, 0x78888a9998789989U, 0x797a887778898a68U,
  0x8997778a877a8a97U, 0x79aa88799a879a87U, 0x969887869a7a6878U, 0x899787a68867887aU,
  0x778789767a9889a9U, 0x8777996797878776U, 0x7899798798799a9aU, 0x96889a888a67887aU,
  0x89899a89997a7a68U, 0x9a9799897a7a7699U, 0x8987798788999977U, 0x9899a7878768a96aU,
  0x887a78867888a797U, 0x987989a897777a88U, 0x9879aa7a67798967U, 0x779977a8a9a897a8U,
  0x689a9aa887a6a977U, 0xaa7a9a687a777976U, 0x677a78899997a786U, 0x79868a7899977979U,
  0x78a998a8787a6a68U, 0x97a968797a868878U, 0x8597789776989999U, 0x9669788878a77986U,
  0x9788a8877a767779U, 0x89897a9a69787989U, 0x77778878998a8968U, 0x68788a9999868a8aU,
  0x7899a687878a6567U, 0x9a7a696798878aa7U, 0x887a7a9777868988U, 0x787787987a8a7686U,
  0xa776697899999799U, 0x7a867a97aa8779aaU, 0x89a6976888a6a879U, 0x767aa68a77778998U,
  0x9969798788a76978U, 0x77986878a6a989aaU, 0x9976779976898899U, 0x975987887576a887U,
  0x87779a789799a85aU, 0x87888786767aa768U, 0x8598a8879aa987a9U, 0xa77986a978889a67U,
  0x77a78999897aa977U, 0x7686598788879896U, 0x7768a89877a796a7U, 0x98a58776868988aaU,
  0x7aa777989a789878U, 0xaa97997698887888U, 0x8aa9898798968778U, 0x9988a7877988977aU,
  0x789887a7878a9896U, 0x886969a99a8a6586U, 0x9989a6789789a998U, 0x77789688a88a7899U,
  0x798989aa8699778aU, 0x8799898996989769U, 0x7787a97888698668U, 0x979a8986a6887877U,
  0xa798898788a97899U, 0x978998a9a76a87a7U, 0x8776a78688988aa9U, 0x6a8a89789aa89798U,
  0x877969a89a88978aU, 0x687a89a88aa78988U, 0x99a7996899898869U, 0x86798a778a8a9a87U,
  0x8a886a8989787989U, 0x8989889677a99898U, 0x977798a97897a789U, 0x9889a697866667a7U,
  0x787788698987a887U, 0xa7a67a8a67778667U, 0x7896778889a87867U, 0xa778a689a7867899U,
  0x7879a89976988979U, 0x7879797969a77886U, 0x8a8a89a8a59a9898U, 0xa6998778a8686797U,
  0x7988a9a8897a9877U, 0x7878a87899a88888U, 0x789a7767798888aaU, 0x9a899a89866aa978U,
  0x887a7658779978a6U, 0x86794a9867a99859U, 0x8747a87779aaa899U, 0x798988a887a8a85aU,
  0x6996887658888899U, 0x9766899868aaa987U, 0x8879776888998979U, 0x7a99998689878a79U,
  0x7777979866aa6768U, 0x89ab8699aa59aa77U, 0x8784897a99487774U, 0x8a6aaa78a88a8887U,
  0x9577867868879a78U, 0x5988a8a8886a8768U, 0x7766a679a9686867U, 0x9969679698869786U,
  0xa679678558a7a686U, 0xa988a67787967997U, 0x869597a9787a8696U, 0xaa87866a6586a578U,
  0xa7697798786a698aU, 0x7a58798886a98769U, 0x67a987878799a578U, 0x568a95a688a98997U,
  0x6988966798977467U, 0x87698a97aa9a6999U, 0x658569789a6698a8U, 0x67988ba5799687aaU,
  0x88865779899ab8a6U, 0xab9aa76989669597U, 0xb79669976787aaaaU, 0x77a6996b9a989696U,
  0x9aa8aab8a95858b8U, 0x79889a9789a9a777U, 0xa7c888967a67a88aU, 0xaa6797689a877a76U,
  0x897979a777647657U, 0x79ab89a7aaaa9889U, 0x9688977799a78797U, 0x858658a787799aa9U,
  0x9a59777787787aa8U, 0xc898a9a77a678996U, 0x76758a87bab767aaU, 0x88a79799a8857998U,
  0x796988989aba7658U, 0xa7a9898898787678U, 0x7886875977798769U, 0x7a88c988aa868767U,
  0x79988979669795aaU, 0x8a89b789ba79a887U, 0x678888779b9a687aU, 0xaa6778b77b9998a9U,
  0x9b9757a799787778U, 0xa7986a696b69997aU, 0x7a978679679948a5U, 0x69aa99aa7a477c97U,
  0x97778979aaa878a7U, 0x78b7979889aab658U, 0x89599879958a8777U, 0x7a8ba59884b999a5U,
  0x787788877aa77a97U, 0x76a8889779785878U, 0x6588889a6998999aU, 0x78777886aa7a6a8aU,
  0x7687969a7a575897U, 0xa89658a69979a777U, 0x76c77578a8888a87U, 0x88989966aa898887U,
  0x6aa8a58a9a659769U, 0x889a6a67699a87aaU, 0x8779677997799968U, 0x659849a776789796U,
  0x86a778a8a87a9777U, 0xb8a677779a879798U, 0x77969887b7a99a89U, 0xa787779999a57897U,
  0x89ab6798a7aa8699U, 0xb87aa9979987a796U, 0xa76767678a6a989aU, 0x8987d9a88a697798U,
  0x97678a787997b77aU, 0x8879b998b99aa977U, 0x89969a77ab679979U, 0x7aa99785986b86b9U,
  0x7899899767a7a887U, 0x88a99977887a779aU, 0xa767788798985a88U, 0x79799aab86387b7aU,
  0x87889a7998898a77U, 0x89b687a8989ab656U, 0x954a8a8984a89787U, 0x7989a69aa58a8986U,
  0x9889778996988888U, 0xa599a75889885999U, 0x55a779699a896a87U, 0x8865988866697888U,
  0x9689aaa98a7a9798U, 0xa879aa88a9a79777U, 0x897798a976988977U, 0xa9679688aa787997U,
  0xa897a7a98a869989U, 0x98877788a79877aaU, 0x89a9697787787898U, 0x868a6788998a9789U,
  0x8969aa9a88a87779U, 0x778799a9989799a9U, 0x7a879a88aa697998U, 0x97867a87a7897957U,
  0x9868798aa7887898U, 0x8a8a9a7689889879U, 0x798a7a988789778aU, 0x88798a8888678a9aU,
  0x88989a776aaa6878U, 0x8aa8966a98a87a96U, 0x89888798aa678a8aU, 0x86999799799797aaU,
  0x9a86789787798769U, 0xaa6a9797797788a9U, 0x889567989a7868a7U, 0xa7a8a99988788778U,
  0x7869a7a8669a9889U, 0x89887a8979776797U, 0x8877a98a77788875U, 0x889a688a867688a7U,
  0x86a97a999887787aU, 0x7869897899786989U, 0x79a777897999a778U, 0x7a999a97a66a798aU,
  0x697a967787797687U, 0xa6a68aa9789a8767U, 0x9a88676888897869U, 0x887988a87989996aU,
  0x89978a979898789aU, 0x7997797997758788U, 0x8aa79a7988a78a7aU, 0x8a89a78a77867697U,
  0x789aaa78879779a8U, 0x689aa787a7796879U, 0x798689796a7a6796U, 0x8a96788a7a777766U,
  0xa888a8689997989aU, 0x67978997888a9788U, 0x99898a8969887a87U, 0x887897aa7998a9a7U,
  0xa97897878988a877U, 0x6889a7998a998978U, 0x89a997aa76898886U, 0x866a696a78878978U,
  0x98897aa97677a679U, 0x99878a89a877898aU, 0x778768a666779789U, 0x88a9766879688978U,
  0x8989788789799978U, 0x9887969886987789U, 0x86788aa7758779a8U, 0x6a9876a77a67a8a9U,
  0x8797867968798898U, 0x977777978769868aU, 0x89888969a7a86978U, 0xa8997a7a9aa8787aU,
  0x99a7a79979677a69U, 0x9a887aa698888797U, 0x7879889776787a89U, 0x8779996688a88a87U,
  0x8877796869799887U, 0x7877aa77a7978877U, 0x7899797987977899U, 0xa798677767a7a77aU,
  0xa989a9a989997898U, 0x9aa7a79a88697a78U, 0x899679877a767979U, 0x8977779878879667U,
  0x7a869aa98a988889U, 0x889a7a86778a978aU, 0xa87a97799677788aU, 0xaa876887a7889a87U,
  0x7a9979979999778aU, 0xaa87989879969a89U, 0x9887879788777878U, 0x8998997989779789U,
  0xa67697a87886a78aU, 0x97a98778878978a8U, 0x7897987a87875897U, 0x9777979797898786U,
  0x79a899a9897a9aa9U, 0x779668a8a78a9688U, 0x8969a788988a6788U, 0x96a79876a877a97aU,
  0x7788687a88979888U, 0xa7699888887a9aaaU, 0x789a788878788777U, 0x7767a886a999a89aU,
  0x788779a888895785U, 0x6a68b979a7a87988U, 0x986967867997899aU, 0x988977977897aa87U,
  0x999687989a84a78aU, 0x6989967698877787U, 0x77677957979a7a79U, 0x699a479686698a67U,
  0x7786779977779ba8U, 0x688876a8a8887885U, 0x7a747897898778a9U, 0x79699a98a77aa898U,
  0xaaa8a89787998659U, 0xa877879988a9a7aaU, 0x987968898968a869U, 0x798667a999957878U,
  0x8887986baa776567U, 0x88897a9898977798U, 0x87a86aa885777798U, 0x77878898799775a8U,
  0x8a8a889998798a88U, 0x78777787787887a9U, 0x6a98a6a97a894878U, 0x688a8ba897898b88U,
  0x77a8889798979997U, 0xa989796a78896899U, 0xa839aa88a9898889U, 0x78988887a97a9989U,
  0x67769978a9997979U, 0x799a99697697a876U, 0xa778798969978889U, 0x6785879aa85987a8U,
  0x97989757aa788a89U, 0x889a797779987699U, 0x9699a78a86aa8898U, 0x79898a679889aa97U,
  0xa986777a77978777U, 0x99a79a9a8878776aU, 0x799a89798a768997U, 0xa69a8887a78a7977U,
  0x887788a98878a69aU, 0x97a778898989779aU, 0x9876a89787978889U, 0x8688a8997998a86aU,
  0x8775a79989a78999U, 0x7a6897a8a8887997U, 0x687a67b877978789U, 0x89677776888877a6U,
  0x8768997998a78778U, 0x7a6677999797a777U, 0x8678888798687a88U, 0x97a699a877998a7aU,
  0x7799796798689a67U, 0xa78a778987986a88U, 0x868697a79aa86967U, 0x76698889987a8a7aU,
  0xa7997a99888a7a77U, 0x89777776a9888686U, 0xa7aa988898786896U, 0x9997979696a79a96U,
  0x977867797798989aU, 0x99598899788a9969U, 0x97a796878998778aU, 0x798978768a7a7677U,
  0x797978aa887a6987U, 0x9997a985977a8898U, 0x9897779876999889U, 0x7aa7875787879988U,
  0x66a768a8977a797aU, 0x989a797879859a76U, 0x8a98a86a97899798U, 0x9aa7a979967a9a68U,
  0xa9799978668788a9U, 0x6877868aa798a885U, 0xa96b887969677867U, 0x878987a788888789U,
  0xa995687897898677U, 0xa87897789a988967U, 0x996699797a6a9796U, 0x788a58798a96a758U,
  0x868aa99966877578U, 0x6a876898a8a6ba87U, 0x8776798988779997U, 0x966789a798a955a9U,
  0x989679a9a7698967U, 0xa8a797887898a889U, 0x9677a7a8698aaa98U, 0x679a98759877a49aU,
  0x6a78879867869aa6U, 0x77888a8989978688U, 0xa79aaa998aa97896U, 0x88977988a85a8987U,
  0x987788a6aa89a788U, 0xa888aa5786668a98U, 0x5979976a87976998U, 0xa8879a85895aa797U,
  0x9977a8899a7889a8U, 0x878a79767898a577U, 0x88878698a77877a7U, 0xa76a789999989887U,
  0x889a999897a8a999U, 0x68899a9896699a97U, 0x678978977788887aU, 0x688978986778887aU,
  0x8a68889877799997U, 0x9999788878788aa9U, 0x7a97a9a68966a989U, 0x98a888aa98668967U,
  0xa797a88a77998686U, 0x7667988877a88877U, 0x7999699669988989U, 0x877787798977989aU,
  0x898979887a9a8899U, 0x99a989786788a7a9U, 0xa6897979966a7867U, 0xa9679978a9a99869U,
  0x9987978986a99857U, 0x679979768997a977U, 0x9798867888797769U, 0x97a8a997a8897a87U,
  0x876a798a767a7888U, 0xa8698978878a877aU, 0x77689889768868a7U, 0xa776867886797887U,
  0xa87777898aa997a7U, 0x7668768897797a87U, 0x668979878a888a99U, 0xa7677878888a8a78U,
  0xa7979967777a9a76U, 0x99879799796aa687U, 0x87a79978777a7889U, 0x89799786798897a8U,
  0x9a9a688a89887a88U, 0x7878aaa897879799U, 0xa9a8a79977989877U, 0x8688668886788978U,
  0xaa888879a997a977U, 0x997967786a77a788U, 0x867798a776a778a6U, 0x9a789a998897876aU,
  0x788aa877a7a96778U, 0x877a89769997889aU, 0x8768987a887868a9U, 0x988868a98a997977U,
  0x9899887689a9a979U, 0xaa798aaa79988897U, 0x9a9877a997688986U, 0x9989a9a876a77799U,
  0x9a997a778a797777U, 0xa77a9869778999a7U, 0x779799967aa868aaU, 0xa7787898797978a9U,
  0x77a66798798a7a86U, 0x89688898979a7977U, 0xa9697a8888779899U, 0x8696aa87889a8897U,
  0x78a6a68a78987888U, 0xa969889797777897U, 0x87877a7787897a87U, 0x8886aa868979a8a9U,
  0xa7987a6897896876U, 0xa8a777977889a677U, 0x7b889899769a7978U, 0x7868a6a99868aa68U,
  0x9aa7879778979988U, 0x9997766798a88aa7U, 0x768a9769887979a8U, 0x9a899a7788866977U,
  0x8a68879877799a89U, 0x67989679a79998a6U, 0x78868a87a77a8778U, 0x78a878888787a979U,
  0x768988978899a778U, 0x79a8779a77796a88U, 0xa8778796899a978aU, 0x6a87877788aaa798U,
  0x887a8a86987786a6U, 0x9978697886867a68U, 0x7998777aa6888879U, 0x87868a8676787988U,
  0xa87777666678875aU, 0x7a6898a87aaa9aa8U, 0x8697a98a68aaa678U, 0x8a8879679786a898U,
  0x9687aa798999a689U, 0x8868788a9a77788aU, 0xa6988a8866999788U, 0xa97a877769a87988U,
  0x6a8689776a688788U, 0x8769976798867868U, 0xa9aa7a5878798968U, 0x999879a886777798U,
  0x76789a688a676a78U, 0x7aa7798a97787886U, 0x97887769a6879777U, 0x7a89a887a9898977U,
  0x7a8779a98976897aU, 0x798a778767898787U, 0x6677887898a9a797U, 0xa77a78a6a876aa77U,
  0xa7a8a7a89a78979aU, 0x88987978798aa998U, 0xa7a8778898798769U, 0x79997a87879a8869U,
  0x8799976789986978U, 0x988a79a8a99a8a68U, 0x8779686687778667U, 0x879a87a99897a9a7U,
  0x79a79786a8a88877U, 0x78998998a78aa797U, 0x997988778a7a8686U, 0x7687886886877898U,
  0x88876a79a7996676U, 0x796a997aa897779aU, 0x88867789897677a6U, 0x78a88778889986a7U,
  0x7aaa998aa9796799U, 0x9a7a8a8799779778U, 0x68688877867aa989U, 0x797779798797a999U,
  0x989987767768777aU, 0x877a8798a877869aU, 0x87878978a79797a8U, 0x78a778a6776a8767U,
  0x76977889978787a9U, 0x879777778a979686U, 0x7778a79786879897U, 0xaa67799777889989U,
  0x967779a899a69688U, 0x9797a98a99a996a7U, 0xa8878a6797798879U, 0xa68868788aa79899U,
  0xa687787799a7aa8aU, 0x7797a779867a88a9U, 0xa776877969978797U, 0xaa6aaa7a999a8768U,
  0x76968a679a879a77U, 0x7a98968799989776U, 0x879796988998aa9aU, 0x9a7987997a977877U,
  0x9787a97898a87799U, 0x88a8697679889789U, 0x87a8789977688a89U, 0x787a789797967776U,
  0x7888978886878958U, 0x9789967877898789U, 0x797786a998988676U, 0x6889998797998a8aU,
  0x8787769987786667U, 0x99a99688778a7978U, 0x88677a8696998696U, 0xa79877a868769887U,
  0x669799998a798996U, 0x89689887968a8889U, 0x87a98a779967a987U, 0x77779a78a8788877U,
  0x8a97879878a96797U, 0x9888778899aaa787U, 0x78797978899a7a78U, 0x8867a8788998aa99U,
  0x99888897789898aaU, 0x87a787687aaa787aU, 0x9687879889a68a8aU, 0xa688887a89687788U,
  0x98a9979698798a89U, 0x7a8aa977aa889888U, 0xa865a7878a799796U, 0x7798a997aa767986U,
  0x8796a89877766989U, 0x78a97799a9776876U, 0x9aa999777a979889U, 0xa88a6699aa78aa78U,
  0x7a99898867778788U, 0x687688a8a9779878U, 0x78a787a977888a77U, 0x8789798777879888U,
  0x6779a88a8a8a9967U, 0x7a67889778978979U, 0x8a96977977996688U, 0x7678878a98a88888U,
  0x9aa78a77aa878a96U, 0x79a9a98777987987U, 0x877a879998899978U, 0x97a8978888a99699U,
  0x7688a7998a879988U, 0x988a986878866897U, 0xa77a79688a876778U, 0x99a8879997876988U,
  0x89677877898876a6U, 0x897788887aa996a6U, 0x6a86a86866897778U, 0x9977aa968a968889U,
  0x78a7a6798898aa99U, 0x8869688a8988799aU, 0x8698889a8a7a7878U, 0xa999689787767988U,
  0x8899997879977869U, 0x7987a79999878a96U, 0x7a9a777988aaa987U, 0x99989998a997775aU,
  0x9986777888968897U, 0x9889a876a7898687U, 0x979977aa78997997U, 0x99879889a78a6967U,
  0x8877879787a88aa9U, 0x9a868977888a778aU, 0x69a68987997899a7U, 0x9776899876786978U,
  0x8978977886998a58U, 0xa9a688868797887aU, 0x76a79899a8779989U, 0x78766686a9798898U,
  0x8899667a77979778U, 0x87687988897a8979U, 0x8887797975877685U, 0x8787768879688988U,
  0x97a87a7779977a79U, 0x966a8a78a989a789U, 0x5687a977877a9698U, 0x8977887699878a79U,
  0x7677a78aa9587888U, 0x989aa8a89a798699U, 0xa769a99877a79889U, 0x8888977676a7a876U,
  0x6797a8998978787aU, 0x98798778a9988969U, 0x887a979698799788U, 0x7a79a979689a7a67U,
  0x8a8989a78678aa66U, 0x9978879779869976U, 0x87aa788967999897U, 0xa9988a9977778669U,
  0x8899876778787889U, 0x998897878897888aU, 0xa98a77a986a86967U, 0x9a89977678799796U,
  0x68a78a768677a87aU, 0x9977799a6a787798U, 0x9967899996777796U, 0x767987779989a797U,
  0x87978a8879997a58U, 0x879a8779788699aaU, 0xa998a9897a888976U, 0x68a7887896677668U,
  0x9aa6968a88987887U, 0x6879797a987a6668U, 0xaa78798a89988775U, 0xa9788a8697988899U,
  0x978787998aa9a799U, 0x78988898a987a676U, 0x7898886877799879U, 0x6886a788aaa96898U,
  0x7867989987687799U, 0x9a97888888789699U, 0xa9767789a7789889U, 0x9887867777797789U,
  0x68a99989a7778999U, 0x8a98aa77777698aaU, 0x7a9a8999788aa698U, 0xa8aa696a78689a9aU,
  0x78768999897a7a98U, 0x978888a6788999a9U, 0x87769aa888689788U, 0xa788a77677769997U,
  0x8698a8a998a78987U, 0x6668878778966a88U, 0x798998a798886989U, 0x9989776878989877U,
  0x87a987a688878777U, 0x7a88899a967989a9U, 0x88a9787977668987U, 0x8997898687768999U,
  0x889979776987a979U, 0x79a87987887a7a89U, 0x78a666a889776978U, 0x799aa678aa788678U,
  0x89a878987a987888U, 0x6868877788997998U, 0x9767aa8787a7a786U, 0x6888768786798799U,
  0x968879a79978a979U, 0x7997798aa9a87678U, 0x868989879798778aU, 0xa867669688799aa8U,
  0x7997897887778689U, 0xaa8997786aa78797U, 0x988a789698798898U, 0x8788a796968aa868U,
  0x7a9888778a768777U, 0x98978887aa7a7879U, 0x8889966a86898a98U, 0xa777997679788a77U,
  0x7877887999a7797aU, 0x8877a77897997967U, 0x766786888967a978U, 0x798a879997678857U,
  0x9988688879a76787U, 0xa6897987a86aaa66U, 0x8799686788979699U, 0xa77a96999968887aU,
  0x79a9687579778778U, 0xaa867a98a7866789U, 0xa8798a7777987977U, 0x789976a9877a9968U,
  0x979a999887788779U, 0x88778777a8877788U, 0xa89879798a975879U, 0xa78a88a68987888aU,
  0xa8a96889aa786686U, 0xa97786977888a997U, 0x79699999a7768966U, 0x9896a87a77a8a9a8U,
  0x9989a768a76968a7U, 0x77a899788a878767U, 0x69688798aa9797a8U, 0x67788866a7697868U,
  0x8879778998896878U, 0x8998778787696766U, 0x76677989a8898978U, 0x779a8897767a9788U,
  0x797778779a96a898U, 0x87a69779a987988aU, 0x78789887aa887a88U, 0x79a767887878a978U,
  0x869a97aa8799a698U, 0x89a675889a997897U, 0x9988678769888678U, 0x96897a6988a78778U,
  0xa68976aaa89a8877U, 0x9a78a9aa9878898aU, 0x88976a888a8a7a87U, 0x9887677a87a87878U,
  0x897a99878888aa7aU, 0x7887969979787878U, 0xa897897687987989U, 0x8889899986669799U,
  0xaa78869778a88967U, 0x7a76788a988a979aU, 0xa8787a6798885599U, 0x78a7a88888967888U,
  0x89767a8778787678U, 0xa9aa8779a87989a9U, 0x7667a88977977796U, 0x7789897689688886U,
  0x789a678888789a87U, 0x9a6a87a678995779U, 0xa77a897787987878U, 0x987778a76b6a669aU,
  0x878a988976788788U, 0x8987987a99878697U, 0xa7b7a67aa6889979U, 0x877698a98898a7b8U,
  0x697a789a99899a8aU, 0x9a797768a7a797a7U, 0x67a897778a7a8799U, 0x998977a79aa78879U,
  0xa767787898899aa8U, 0x96979a9788966988U, 0x977b8a7798a999a8U, 0xa888986899768779U,
  0xa8a9a9aa79786788U, 0x8967a68a9a99a766U, 0xa98a8a9897779686U, 0x997aa77868777977U,
  0x9999a88889a6a689U, 0x7977a8a8a889888aU, 0x9797998887897787U, 0x8987887777a8788aU,
  0x9a77799999968a68U, 0x8a6677677a679779U, 0x998689869a9978a7U, 0x78987a777a697979U,
  0xa97a98a68aaaaa89U, 0xa8988798689769a7U, 0x997a679a9698a8a6U, 0x969a897787998798U,
  0x689a78989787a99aU, 0x89788888a6888b67U, 0x587a986977877877U, 0x99878a859a7a8a97U,
  0x8aa98868988969a7U, 0x8899588967aa9887U, 0x99789568888aa896U, 0x78688886a999685aU,
  0x6887678868959989U, 0x866569997a9976a7U, 0x8888876aa9aa9a68U, 0x8998589799a77aa8U,
  0x6976778688787568U, 0x789b76968a698886U, 0x87966aa7aa698868U, 0x988788a9798a9797U,
  0x75877998a668a866U, 0x67a68998a9887a99U, 0x8a9897976a68767aU, 0x8a67779779788a78U,
  0x6777a96487797667U, 0xa77889988979a989U, 0x86879a99a7879699U, 0xa988878899669877U,
  0x976978a5898aa798U, 0xaa678998677aa79aU, 0x766a779887876599U, 0x977974a79979a997U,
  0x886a78697777a677U, 0xa7997a779a697877U, 0x775a998877978968U, 0x7a999776a897a97bU,
  0x767967aa96888a88U, 0x898aa978a7a87587U, 0xa87877887a87a889U, 0x97869899798a7887U,
  0x777788a978978779U, 0x8a988878a8899466U, 0x68b9998984a877a8U, 0x87987798a8887a99U,
  0x98a797aa889b8a87U, 0x888999977996aa99U, 0x79aa869a997769aaU, 0x6aaab7a8a7aa7789U,
  0xa88898a886787797U, 0xa9987986997868a8U, 0x7a9ca699aaa8a79aU, 0x7989a89879899759U,
  0x8967699997779a68U, 0x898868897989699aU, 0x87997aa87a787876U, 0x899aa86889968a78U,
  0x8788798889a7989aU, 0x679777769776aa99U, 0x8a697aa979579a99U, 0x968579a889897887U,
  0x88a96887a7a89758U, 0x78b756688a98a7a8U, 0x999877977788ba77U, 0x68988866996778a9U,
  0x979a699778886aa8U, 0x99a7a7899a89a897U, 0xaaa98799989876a5U, 0xaaa99988a888a878U,
  0x79768898877a77a9U, 0x9758888787889878U, 0x87a67947779aa779U, 0x7879976a6a878879U,
  0xa789698898996a77U, 0x8a98998a77887586U, 0xa769a86787a89788U, 0x9a89a78889797a67U,
  0x6877999888688998U, 0x9877aa999766a7a8U, 0x6988886887988779U, 0x898a5896a896979aU,
  0x89769a9967a77989U, 0x6899a8898a798799U, 0x789879989678a769U, 0x979a698778889a87U,
  0x88886a79a9889989U, 0x87897a976a8798a9U, 0x9a778766798787a8U, 0x8a8a76a8977a9798U,
  0x7988a897687889a8U, 0x8a8787997987a868U, 0x7778978986979878U, 0x9868a7799778978aU,
  0x76a999777977678aU, 0x9999769777a98977U, 0x8aa8997789875889U, 0x7779a898998a8678U,
  0x7688976a8aa99879U, 0xa7987797a9777768U, 0x68677979877789a8U, 0xa799888976779aa9U,
  0x878768767a9a67a8U, 0x7958799889998877U, 0x7676987898688886U, 0x7a77777786968798U,
  0x8878a7a778779696U, 0xa997887969a89699U, 0x99a6a6978567aa9aU, 0xa766978aa9987967U,
  0x7787967979977986U, 0x8777aa8886777878U, 0x7768987a9a96a878U, 0x8696a979a8778779U,
  0x9899689898a9869aU, 0x6a7877779a88a8a7U, 0x69a7866878978887U, 0xa88798788aa98888U,
  0x88857997a9a88997U, 0x779787a7a6aa77a7U, 0x776887899a888997U, 0x889798977978a897U,
  0x89aa88879a878797U, 0x9787869979987a69U, 0x79898988a868a797U, 0x768a7797a8996a79U,
  0x6798887a988a9a66U, 0x97699a989979a778U, 0x699687aa78aa8879U, 0x77a97a98889898aaU,
  0x888a988887777779U, 0x78a689a968a86a9aU, 0x9969988a99789776U, 0xa89989a777897779U,
  0x8779778988677879U, 0x97668877a87aa877U, 0x66a8867898897797U, 0x76667a89a9989787U,
  0x9977986888966776U, 0x9797a978a9997667U, 0x6a7688a7a7699989U, 0x9a9a7a67899a9a69U,
  0x8a9a777898a8a978U, 0x67766987aaa68787U, 0x9889797996979788U, 0x79988787777a9788U,
  0x799888a8a7889999U, 0x767a89a686a88778U, 0xa96667a8a888a788U, 0x778a797989669779U,
  0x77796a98698a7797U, 0x677899aa89799867U, 0xa78877a7aa777888U, 0x968877887679979aU,
  0xa8899886a968a977U, 0x77aa7797a7788678U, 0x78876a88a6688886U, 0x76a9aa7979889779U,
  0x788878997897a76aU, 0x6aaa9676897887a7U, 0xa88679a7798a6878U, 0x8877769877787799U,
  0x7878888797879989U, 0x79a8789979988896U, 0x797a8a78969a7887U, 0xa78a8979a7988688U,
  0x8898788aaa6a6a96U, 0x9a69a76a999a69a8U, 0x8879878a89989a88U, 0xa86697799898978aU,
  0x9689a78896686995U, 0x78966aa778898978U, 0x785a75987979aa79U, 0x8a9976b7a788987aU,
  0x79989787888a7788U, 0x96a6779787877aaaU, 0xa9a778689987a7a9U, 0x98a687a8a7788868U,
  0x7a8677998677777aU, 0x9999958688777a96U, 0xa9779879896899a6U, 0xa898a9a8887a87b8U,
  0xa88b867a9aa8b799U, 0x7787a6a978998777U, 0x78988a6788797769U, 0x889667aaa9897976U,
  0x8a76a8a6a8a887a9U, 0x7a8767799a887976U, 0x9685897669877898U, 0x6878988898988588U,
  0x89aa878786796888U, 0x698987787977a788U, 0x76888a89688a6698U, 0x6586a9ab88997779U,
  0x5867886aa78a8687U, 0x978a67a6aa8897a8U, 0x78998aa79a787788U, 0x87978aa6999aa7a9U,
  0xa678678a777a889aU, 0xa9b897688796a777U, 0xaa9976a78876a777U, 0x7796898a9a8999a8U,
  0x88a7a878a9698776U, 0x87989897879a7687U, 0x9699769a67977777U, 0x9a99998877aaa988U,
  0xa786786788767967U, 0x76a68767a8798987U, 0x9988679966a99777U, 0x76a8698787778767U,
  0x97877a7a99988877U, 0x878799a78769788aU, 0x7777a7a77a676998U, 0x98a997877897a768U,
  0x9885886798887968U, 0x6a7a6997897a7989U, 0x87a997868777a778U, 0x8a87889a8966a989U,
  0x9a88876999a8a9a7U, 0x978988886997898aU, 0xa6888797a8899a79U, 0x77889898998a7879U,
  0x976a6788a8666799U, 0xa6999999899789a8U, 0xaa869a8a7a77878aU, 0x9886878789678979U,
  0x89a8a78777788876U, 0x7897977677777689U, 0x77597a87789878a5U, 0x8789898999a76789U,
  0xa698888a78a77989U, 0xa88a789a89a78898U, 0x8889967778789896U, 0x99678898978897a8U,
  0x88979767898a7787U, 0xa898a9a876998779U, 0x97697779798987a7U, 0x87a99a987a876a78U,
  0xaa9797a878789999U, 0x8667a79776999877U, 0x9996886689797868U, 0x888766777869698aU,
  0x6988a88789788778U, 0x67a67a778978a798U, 0x98877a8996797998U, 0x897698aaa7999786U,
  0x9966978aa8896977U, 0x77977777a8887a89U, 0x79789a79aa886988U, 0x6998876867a66999U,
  0x7a78777688a9a768U, 0xa997798977899986U, 0x88787697a88a8668U, 0x88788987978868a8U,
  0x677968897979a877U, 0xa8868769aa778787U, 0x6997798867a97888U, 0xa87989997879978aU,
  0x9878677799997a77U, 0x8788787a899a869aU, 0x985889a885868a77U, 0x87a979a977789a8aU,
  0x869a97a9787a8997U, 0x978a9787a7877776U, 0x87a7796889868897U, 0x879689987678888aU,
  0x897697a78a67a899U, 0x89878a7797aa8498U, 0x9786876695789998U, 0x878a7897a8677658U,
  0x7aa879788a9b9779U, 0x889788798898889aU, 0x8a97897799a9a977U, 0x8898a6a9797a8a99U,
  0x778877a76a878989U, 0x88a9688886589899U, 0x9a8ba986a7b7a998U, 0x8899979898799787U,
  0xa7957997aaa67ba6U, 0x8989878a779787a9U, 0xaaa768a898a68679U, 0x6a9769a8779aa876U,
  0x69778a9688a96788U, 0x9787a987798a7798U, 0xa78a7a986a769999U, 0x989a98a786787878U,
  0x7878a88879688658U, 0x9868989787698868U, 0x6688998878979898U, 0xa79877878967a887U,
  0x89a7a788987866aaU, 0x7887898a88a98778U, 0xa8a9a99a77757a95U, 0x6a8a7a868788a998U,
  0xa69a968697889989U, 0x87587a9967986677U, 0xb8a8874898897887U, 0xa9897799969778a7U,
  0x88788a98a9976887U, 0x8789a8a79aaaa598U, 0x7b7787a775977879U, 0x7a69a88998878858U,
  0x97898aa67a899a7aU, 0x888768a777977678U, 0x8a98897799999698U, 0x787897a68a8a77a7U,
  0xaa7a98887887786aU, 0x9778a9788947978aU, 0xa888798899aa877aU, 0x9897877788868958U,
  0x87a9989a7a79a9a7U, 0x689998a867679989U, 0x77878aba79878877U, 0xa8a9b787898899a6U,
  0xa98789959879889aU, 0x87a7767796897887U, 0xa79a78889a599999U, 0x786878a999898899U,
  0x888a97788998894aU, 0x7777aa899a9a9777U, 0x99787a978799a7a9U, 0x7796757898679899U,
  0x8979889799977786U, 0x8787788879aa8896U, 0x99799a987a888894U, 0x78a97a9968697787U,
  0xa798787a89878a86U, 0x78578797998a9a88U, 0xaa8899387a999788U, 0x7a87789988787a9aU,
  0x79796888886aa869U, 0x78987a9887aa9898U, 0x78598799a6897a97U, 0x7989a978a977787bU,
  0xaa7869978a6b8a78U, 0x7967876a7998898aU, 0x9896795988799768U, 0x87a88aa998a8a888U,
  0x8779878889987889U, 0x6777868a7967987aU, 0x987a8a78796889a8U, 0xa98997a9679766a8U,
  0xa998a98aa9896777U, 0x87999779a7897897U, 0x7788679878887787U, 0x999888688a96a9aaU,
  0x88678a78779778a9U, 0x77897776869a7a99U, 0x9a76897679688976U, 0xa8a677a79778968aU,
  0xa7a6798776867869U, 0xa78aa676788aa998U, 0x7a789778a98885a6U, 0x86a8a76977a7a778U,
  0x8997686799788976U, 0x8a77aa7a77898879U, 0x6989969678896676U, 0x9886869796677687U,
  0x888a6669886a8a9aU, 0x7778a799a687a888U, 0x68a879697a8777aaU, 0x78988786a8a77799U,
  0x7976886aa8896966U, 0x7679987978777968U, 0xa878a6a7a67a9967U, 0x89668769a8897786U,
  0x8986989888888898U, 0x79897897697a7987U, 0x87a9679a78899988U, 0x889868799a689779U,
  0x788876677878789aU, 0x87877897a86798a7U, 0x98a67a97a7689778U, 0x8979779776787879U,
  0x9879a88977989786U, 0x6879a9a9a8986997U, 0x778697788a7aa998U, 0x99767a889788a798U,
  0x77989696a96aa8a8U, 0x7799876888796676U, 0x77899897898a8897U, 0xa778887699797a99U,
  0x9798687799779759U, 0xa888999797987777U, 0x999679767a9967a6U, 0x9989789669878789U,
  0x86878767779787a8U, 0x7aa7777a89898758U, 0x8959a98696a86a98U, 0x8979989899779879U,
  0x789687a778689aa8U, 0xa97789988876976aU, 0x7977876798999998U, 0xa78978a6aa899788U,
  0x7979a73988877a96U, 0x967788a78a789589U, 0x9938868774888698U, 0xa988a87aa9797959U,
  0x7777886877898886U, 0x68887a7788967899U, 0x8a6788779999a999U, 0x6988a778a9c899a8U,
  0x9a7697998797658aU, 0x8a996699894989a7U, 0x78748b9969686987U, 0x787779889879a759U,
  0xa6759679977a8a77U, 0x47799aa7a9697868U, 0x9a7898b9a7888978U, 0x9788887766878798U,
  0x7a77687686999967U, 0x68987789879867a7U, 0x66978a7896499a66U, 0x77a977589786866aU,
  0x788a879988897749U, 0xaa878aa96699798aU, 0x869977978997b78aU, 0x8889767878b98798U,
  0x68879697877895a6U, 0x9968877789876997U, 0x6695987878768a85U, 0x8a998a76795887a9U,
  0x89786897878a9886U, 0x894988788886a898U, 0xa67869499aa66789U, 0x9896a78b799a79a9U,
  0x8889998a6a69aa99U, 0xa676898997979777U, 0x7a988979769a6979U, 0x788797aa89a79868U,
  0x7a96899776867978U, 0x78867897878a79a8U, 0x88a9688aaa7a7988U, 0x88a77a9a68889879U,
  0x9a97799987776897U, 0x79778787786769a6U, 0x86a88778778aaa78U, 0x97a6979877988998U,
  0x8778869676798979U, 0x8676a67999988797U, 0xa7677a9787997797U, 0x7777a68778699887U,
  0x799998869688a98aU, 0x876777a789778a79U, 0x7a8988686766878aU, 0x78a8998697a98799U,
  0x87867787a9678959U, 0x79979a8977787977U, 0xa9a67a97898a9998U, 0xa798887a89996889U,
  0x9a77887a87a98878U, 0x887697a7a7a769a6U, 0xa86988a698999685U, 0x878a988879698998U,
  0x988877a87879678aU, 0x7a87689a899a6a9aU, 0x8a89887a8a76a77aU, 0x86797a679a67a8a9U,
  0xa88777a9766a88a8U, 0x878967a888867688U, 0x98b7978888a9887aU, 0x77689a6a887a8768U,
  0x9a9999889988a788U, 0x78a8677a697898a9U, 0x7a9aa97889a96986U, 0x797ab77789898997U,
  0x97897a8a98778888U, 0x9787887a7a989996U, 0x988a7a7777677a8aU, 0x8a7a877687999789U,
  0x7a7767aa797a8987U, 0x6868977a8877898aU, 0x7aaa98a778aaa789U, 0x998a898788889a98U,
  0x677a788a89878887U, 0x6997a89878779896U, 0x889978a869978978U, 0x76989aa8a98978a9U,
  0x69997999a9797867U, 0x9798777787787997U, 0x88a779a87788a997U, 0x987878988887996aU,
  0x8879988788a89787U, 0x9a8977778797a678U, 0x7778877776899797U, 0x9a9a699679987977U,
  0x9778999a8889877aU, 0x779799878a776887U, 0x98a9778989986a89U, 0x877699768a88879aU,
  0x8797a668789977a9U, 0x77a787897879a787U, 0x8968678a76a9a887U, 0x7889989987898978U,
  0x877788798896a897U, 0x88a878a86a88979aU, 0xa7886a889aa8aa7aU, 0x9689688896889787U,
  0x9a789a9a77a9a869U, 0x798a787888797787U, 0x78987677868a8aa8U, 0x9a7978888a88aa69U,
  0xa89877aa7777979aU, 0x69a67778a977aa88U, 0x7a789a99a7687698U, 0x7867979688a98877U,
  0x9988a978a8989688U, 0x7877799897a89789U, 0x7798989868776887U, 0xa69a788789687667U,
  0xa979778a98788a5aU, 0x778789777aa7987aU, 0x87a69669a8776769U, 0x88978a989a8788a9U,
  0x6986779aa988a896U, 0x89a7799998988899U, 0x8867898a97778878U, 0xa88977788778787aU,
  0x9699997a899979a7U, 0x986869a887968688U, 0x6a9898798aa8988aU, 0x887897a9a89a8a8aU,
  0x969789a6799a7a88U, 0xa7a79797a8a86566U, 0x76a876a885889787U, 0x98689a78a7aa7a87U,
  0x7a7886a77a898977U, 0x888aa98999899aa7U, 0xa88797997967a777U, 0x87aa9778a9869777U,
  0x99a8777778998a77U, 0x8a97987979a688a8U, 0x89a97876797aa9a8U, 0xa97777888a778969U,
  0xaa9687689a8a89a8U, 0x8679a88a8a888888U, 0x7868888a68987998U, 0x7aa78779a787968aU,
  0x8899788a78689778U, 0x79977a689889a9a7U, 0x779a78788a79a79aU, 0xa9b797898988787aU,
  0x9687587998798a4aU, 0x897a8a888899a788U, 0x8676a8878998aa78U, 0x78998a88685a6969U,
  0x88896877a7979b99U, 0x7787676988777768U, 0xaa99986978897996U, 0x899a796877778996U,
  0x778998969668a89aU, 0x976a879897998976U, 0x598a866788a98aa9U, 0xa7888965776aa977U,
  0x9889787789799966U, 0x9988aa689a99779aU, 0x8a8976767787979aU, 0x7979a98779aa8879U,
  0x89a997788897989aU, 0x78a88a6a9a786878U, 0x7869998878977a79U, 0x97a7789987889798U,
  0x6a97986a97999a78U, 0x99899798989998a8U, 0xa687799a8989aa78U, 0x987a897aaa979869U,
  0x98866677999a6888U, 0x777897a79a988a69U, 0xa978788997797a78U, 0x7897aa696a869788U,
  0x7998a98a99886888U, 0x77798987a9788897U, 0x88786aa967868977U, 0xa778a679a6a96789U,
  0x87778a676997a979U, 0x778777876997a798U, 0x78a778786a796678U, 0x789998767986a797U,
  0x7887789866998797U, 0x89776988a9aa8878U, 0x987887678879a688U, 0x68778777896888a8U,
  0x7878888969879a87U, 0x896a897a6797978aU, 0x677788777779987aU, 0x7689779678786667U,
  0xa79a896a967a7897U, 0x78768677788aa689U, 0x98a787a7a78a988aU, 0xaa98987989a99796U,
  0x877a778679877898U, 0x799888799a998689U, 0x88a8a6697767898aU, 0x98895a8888979978U,
  0xa99a778979989a78U, 0x77978787a88a9986U, 0x89789666789a7989U, 0x678a88798a679988U,
  0x8a889a98876a7998U, 0x8979a889a76a7779U, 0x7aa788788a878677U, 0x89787987799a9767U,
  0x888a8a67aa798679U, 0x67a8988776878787U, 0x7a95878897989a9aU, 0x8688a87997a77767U,
  0xaa9878877a886977U, 0xa999a98787777a68U, 0xa877869888895698U, 0x886aa888a7777a7aU,
  0x6778a79869777896U, 0x77768779aa9a8879U, 0x6668898677797987U, 0x98898796a5889a76U,
  0x7978a97a6a7a8879U, 0x996a898676686987U, 0x77a6996998a6987aU, 0xa9968997768a6867U,
  0x6778988878786877U, 0x7a87899997a7a577U, 0x786988a877879779U, 0x977a77a787977a99U,
  0x78889a9797786788U, 0x979878798a88a8a8U, 0x8868997987777879U, 0x99677887aa796997U,
  0x8aa8776a7aa97987U, 0x7878979777988889U, 0x77a77899a8988798U, 0x88a8899a77998968U,
  0xa8767aaa7a798677U, 0x87a87888a8a97998U, 0x7a87a9767a977888U, 0x9a9a687797787879U,
  0x88999878a8787997U, 0x67a78a87a697789aU, 0x6aa8a87869668887U, 0x86788999799a8879U,
  0x6997787a89999969U, 0x778768898979a797U, 0x88a8878986877878U, 0x7988777887a8a797U,
  0x9667a996789997a8U, 0x7866aaa799697a8aU, 0x9689a89995879687U, 0x777977767aa99a77U,
  0x779a9787aa797877U, 0x788a97879978869aU, 0x88a788689a8799a8U, 0x7888a88899a78889U,
  0x9798a78896898665U, 0x8688567769aaa877U, 0xa65786a979a78979U, 0x988a78a98678a859U,
  0xa9a795a85665a887U, 0x5895a697776876a7U, 0x7768865776a99a99U, 0x99794998a6599779U,
  0x6778789a867a6698U, 0x88ab759a875a9896U, 0x8997a68897678888U, 0x8aa99a877869a7a8U,
  0xa5aab98976a78978U, 0x5698967696875867U, 0x8987b77789868877U, 0x7889978a77779988U,
  0x6889a66476997667U, 0x97798787a9978997U, 0x8675977978979887U, 0x976988787667a688U,
  0x866a7a8667a98999U, 0xa96978a6689a8a79U, 0x658a679979aa4686U, 0x6578a58679a96797U,
  0x7a9a7677697a7496U, 0x7a8978798aa96796U, 0x86468868a96488a8U, 0x79767a86a997998bU,
  0x9696667877878877U, 0x6a98978788787599U, 0xa8a8689887a8a88aU, 0xa796877a8aa76979U,
  0x89a77a6767799678U, 0x7879898797889799U, 0xaa77a898a76a9679U, 0xa88a7999a7a777a7U,
  0x7aa7998688878876U, 0x999a67aaa89987a7U, 0x898889688878768aU, 0xa78988a88979a779U,
  0x9a9a689a988768a8U, 0x986a897877b88987U, 0x7789a999aa8a68a6U, 0x889aa976a777a98aU,
  0x898878a798878867U, 0x8a98a968a888a798U, 0xa898778678999867U, 0x6a78999aa8a88876U,
  0x8776a87889999779U, 0x8987699a78776678U, 0x887867a788676788U, 0x966877978a777869U,
  0xa898896679a87977U, 0x789878668a777988U, 0x966698a698a89787U, 0x998a897797888769U,
  0x7986976a7a9876a8U, 0x96687878898a9789U, 0x978788886697a987U, 0xaa7997799798779aU,
  0x8978a96a778888a7U, 0x89876a8977777679U, 0x6a8967589a877879U, 0x9877876578887867U,
  0x97697978986a8767U, 0x9a8688a767898867U, 0x986a9889a66aa989U, 0x778a878896899a98U,
  0x8798886a87768969U, 0x8879798896a79998U, 0x6778797a7aa9aa9aU, 0x87878797a97667a9U,
  0x6689889998886879U, 0xa986869888698a78U, 0x7886889878787869U, 0xa98a97797788a879U,
  0x87997a6798686a66U, 0x6689868a97987798U, 0x98a96a8879989877U, 0x7888789778968a97U,
  0x69977a95a6878889U, 0x6797688988787897U, 0x97898aa8899a7889U, 0x89677787966689a9U,
  0x7a9a879779877778U, 0x7988788797788997U, 0x898897a988999799U, 0x76778aa89a78889aU,
  0x7a8777789a899779U, 0x78979999868a7986U, 0x9667987768787778U, 0x98a87888a7769889U,
  0x9987677aa99a6a8aU, 0x7887a98997679786U, 0x78a76a6a99986967U, 0xa788aa7776787a87U,
  0x9a67896889877677U, 0x9a788a86a997a688U, 0x986889aa6688989aU, 0x888798687a97aa87U,
  0xa8a7a7798a86a676U, 0x8a7a687878a97978U, 0x89a977a9a86a977aU, 0x989787898a97897aU,
  0x8a8aa699a9877777U, 0x9a9a89697869a797U, 0x6797999988979987U, 0x8887a99a87a88799U,
  0x88769a67987aa887U, 0x8879779a97789798U, 0x97977896889a8797U, 0x7976778a8a798689U,
  0x7a79a6a799988776U, 0x76889a787789a8a7U, 0x89988897a87a9997U, 0x6887797977a78899U,
  0xa97678877987787aU, 0x8aa879887a7887aaU, 0x97779a7777788668U, 0x9a7786a787768aa7U,
  0x6887a67a87a79987U, 0xa889968a797a6a8aU, 0x68897a7895877977U, 0x778a8978a6978969U,
  0x7877789a7777a8a7U, 0x6967a8888a99689aU, 0x7a7a787887877887U, 0x8979a987989967a7U,
  0x9988987797787985U, 0x89797a9667a886a7U, 0x9768a76779768777U, 0x8997889a779a7866U,
  0x8899789769898788U, 0x897a7777887678a8U, 0x89a7776888867897U, 0xa88789a798877998U,
  0x9a97799896aa87a9U, 0x67967899a958aa96U, 0xa87988a7787a7797U, 0xa777688878778687U,
  0x887a98998898a877U, 0x7968879887897a8aU, 0xa8869a967a789777U, 0x78999977a87aa778U,
  0x79a878966969a878U, 0x76689796a97878a6U, 0xa77a97877a9a9796U, 0xa9779767a67979a6U,
  0x87a89778a967678aU, 0x869688a7869aa79aU, 0x6989aa88797aa896U, 0x878896a799679898U,
  0x766997a778799879U, 0x9799899886877a6aU, 0x8a996a8766a998a6U, 0x99777776a6aa9987U,
  0x769798889aa99698U, 0x87787a889a987899U, 0x7aa97a67886876a7U, 0x8689778896687779U,
  0x8679885989797797U, 0x86679887aa998679U, 0x7788889a85977797U, 0x7778aa8a7789887aU,
  0x688a879896a98998U, 0x8796a789a989a797U, 0x89a6aa79a998867aU, 0x77a799a998787787U,
  0x6a779968887887a7U, 0x6699877a89788987U, 0xa987a69aa989a776U, 0x79878a9887796788U,
  0xa888aa88678878a9U, 0x699a98888877a799U, 0x98878a6899986878U, 0xaa69a89799868787U,
  0x799aa97799799798U, 0x978799a7878a88a7U, 0x89aa89a777879799U, 0x7a8976877a7788a7U,
  0x8689877a89768987U, 0x8887788a97889999U, 0x86996796698a6987U, 0x6a88798688668a76U,
  0x999aa97a76978977U, 0x7768888998788787U, 0x978a889986a7a788U, 0x86a8a997787899a8U,
  0xa7978a97a89a7979U, 0x8789a88979879779U, 0x77a976687877987aU, 0x688777a79888a877U,
  0x767a99a868776a88U, 0xa99699a78a7aa668U, 0xaaa7a9799688998aU, 0xa778987698997a77U,
  0x6969a89689787886U, 0x78a8a7978a879987U, 0x7887798698677679U, 0xa8887998a8868a77U,
  0x9867786a867889a8U, 0x7a777788a8996789U, 0x99989899897a7697U, 0x878787a877a96858U,
  0x887598a787989679U, 0x66a798a8aa8a7988U, 0x98a777878a6a9798U, 0x879898997a889799U,
  0x98689aa888a88776U, 0x967a79a8998a8a78U, 0x9999aaaa8786a786U, 0x897879879a696878U,
  0x99978aa886899899U, 0x97978a9999999687U, 0x9a768889a97878a8U, 0xa888a9898a898b86U,
  0x679797866687a977U, 0x9a8877aa79799777U, 0x86679898a6789786U, 0x88aa7a7979887998U,
  0x7799877999a86877U, 0x7899a79967977987U, 0x6788968a99789777U, 0x87a6988788988978U,
  0x879988b89a6a6786U, 0x7889678698a7a687U, 0x77c798877889788aU, 0x887787a88a797987U,
  0x8a89767898757876U, 0x7989689a8a898879U, 0x87a999978a9a7799U, 0x9889787798688968U,
  0xa769897a9779868aU, 0x78778876898a6897U, 0x998789aa889aaa88U, 0x96779889789877a7U,
  0x7a898a78a87a8867U, 0xa89898a8a6787997U, 0xaa9969796aa87789U, 0x9978b9878a8a8996U,
  0x6a99878968a6679aU, 0x7987b8a88a887877U, 0xa79669897a788aaaU, 0x897a8a9888aa86a7U,
  0x86a789788a98778aU, 0x9777686a77788aa9U, 0x9576977699aa5878U, 0x87aa9a8a9847ab88U,
  0x898a98a8a88a9aa7U, 0x789797878987a87aU, 0x7569a8a8877a7688U, 0x77687676a6899a78U,
  0x79a888a8a6789a88U, 0x88679868a8997a96U, 0x7888a88a79787887U, 0x697786a587787797U,
  0xa9788a6989797a77U, 0x9688989a88689599U, 0xa877876786788979U, 0x9988778aa7999a86U,
  0x7a977a978988977aU, 0x8996976a88688a8aU, 0xa97978699a779797U, 0x9978a68776998678U,
  0x997797667aaaa799U, 0x6a78976a686a7988U, 0x6986a777987a7798U, 0x989a89798798a757U,
  0xaa956aa89979a898U, 0x68a876a98a797876U, 0x887999b9877aa879U, 0x68a89a6886a8a796U,
  0x79787a87a6799967U, 0xa698a9797779a888U, 0x6687876767976aa9U, 0xa87a8a99779798a9U,
  0x8a99a8997a977979U, 0x9a87999788a7898aU, 0x8976aa998787a779U, 0x98a97789779879a9U,
  0x8a99987897798689U, 0x87798879a9a99978U, 0x8857988999878878U, 0x6a777778aa5788a8U,
  0xa77887889aa9779aU, 0x997a868889987a78U, 0xb7988789799867a9U, 0x8897786778897796U,
  0x699699778a678978U, 0x8a7999866797a999U, 0x8a797668a7a7a99aU, 0x9768799786a79a89U,
  0x777aa76688859988U, 0x7897a877a6798a78U, 0xa988a668aa999777U, 0xa97a697aa98aa778U,
  0xaa98aa776877997aU, 0xa987899699889878U, 0x989567a976779779U, 0x979a7697a7797886U,
  0x78a76698a8776789U, 0x68878889a779a798U, 0xa96a97766a998679U, 0x798867877888a877U,
  0x8987a879a6999678U, 0x6989a89877978a97U, 0x967678a967978986U, 0x8689997897897866U,
  0x997a9a8667777878U, 0x8857a78978987a89U, 0x9977669788a85a79U, 0xa88879898789aa88U,
  0x987aa67998aaaa88U, 0x8a79987796887987U, 0x995988a786a877a7U, 0x997769897788aa77U,
  0x86aa878778798778U, 0x78988a67a77a9868U, 0x56799a67987777a9U, 0x7978a8858787a899U,
  0x79977798897a7886U, 0xaaa9a77868688667U, 0xa7769987a787aa6aU, 0x7889988878677a99U,
  0x97898a7987887869U, 0x6977979987886967U, 0xa8899a8a98a7a767U, 0x79788899976798a7U,
  0x7878777889896877U, 0x897668aa886979a8U, 0x98a997aa88699a89U, 0xa998786877878886U,
  0xa8a9688989688866U, 0x6aa8a67799877998U, 0x677966677968a888U, 0xaa8a68aaa7888769U,
  0xaa98889679a8a988U, 0x8779979978a88a86U, 0x989688869998788aU, 0x8686798888989879U,
  0x887878a77a79777aU, 0x9a79999a97a79697U, 0x97878789778a7797U, 0x787979788989a8aaU,
  0x967778a989a976aaU, 0x77a97989987a897aU, 0x9869aa7a68999776U, 0x6989789a97778697U,
  0x77a67879a879888aU, 0x7867867979987899U, 0x788988687998a777U, 0x8a7898a6a9aa9a97U,
  0xa896aa878a687a76U, 0x7a8a8899988a6aa6U, 0x8a7798a7a8778889U, 0x99a8879a78797a7aU,
  0xa99878aa88a7aa89U, 0x998a99a89788677aU, 0x788889899797a988U, 0x8a98878aaa787787U,
  0x9989797a86a77a7aU, 0x79977776a888788aU, 0x98668779898a8a97U, 0x877a999898699a98U,
  0x8687867789999778U, 0x796aa96a777a8868U, 0x79878a8a8788987aU, 0x788889a8a8886889U,
  0x789797766698aaa7U, 0x7a888979768a9878U, 0xa8a8778769667969U, 0xa788888789a76899U,
  0xaa76899786988868U, 0x99a78a997a978896U, 0xa9866a987889a769U, 0x768a7a8689968699U,
  0x98a79777879aa987U, 0x77a9698987777989U, 0xa899876886a889a8U, 0x76679aa877aa9697U,
  0x879898988aaaa689U, 0xa879aa8aa87a8a87U, 0xa899889998778989U, 0x7a66a98a98877799U,
  0x9796a789976aa8a9U, 0xaaa8aa877a786686U, 0x7a86a69985aa9767U, 0xa8699887787aaa89U,
  0x78787696978a7789U, 0xaaaa797996789677U, 0xa89a868788899868U, 0x7a78799899777789U,
  0x8998a9787a88997aU, 0xaa9a96789898a888U, 0x878698a79a688767U, 0xa9998a9798778a59U,
  0x88977978886a7887U, 0x7988a898a869a979U, 0x78767998a8a77697U, 0xaa9a79988a887aaaU,
  0x6898878698967978U, 0x88688a797a899897U, 0x788777996a6877a7U, 0xa789a8687a777978U,
  0x76869a797979a778U, 0xa97977968a87a87aU, 0x6876879778a89678U, 0x9899877897998788U,
  0x6a79889978999968U, 0xa978787877876888U, 0xa798a787a5788696U, 0x888689779a8667a7U,
  0x8a9879a979997886U, 0x9989986a69766779U, 0x9aa99867988867a7U, 0x78778967789987a6U,
  0xa67588c778585997U, 0x797758a5aa797667U, 0x95c68577a9698788U, 0x787877578b89a789U,
  0x89a777999983776aU, 0x8688998a87ab7778U, 0x9a78786878877889U, 0x958837a68766a79aU,
  0x8689698a98878777U, 0xba6a978587899887U, 0xa7867996aa7aa876U, 0xaaa7788989867999U,
  0xa97a879786a77568U, 0xa8b7879878897858U, 0x9798686797897777U, 0x988ad78888877986U,
  0x998698985899b587U, 0xaa76b889a88aa8a9U, 0x87a858787a9a8769U, 0x9a5986867b7886a9U,
  0x79788a976787a967U, 0x769a9a76987787a6U, 0x9a7676aa8a9a47a7U, 0x788767ac77387d8aU,
  0x78a9869788a9aa97U, 0x78b59889a7a7a958U, 0xa637688795787898U, 0x98aaa69865ba78a7U,
  0x7899a9b8788987a6U, 0x8678897668785789U, 0x578678798897c897U, 0x78686a87875a8968U,
  0x8889a659a8986879U, 0x979a6779796a7679U, 0x878977aa66789969U, 0xa77977b77a968778U,
  0x8a868879797b9898U, 0x88798997a889677aU, 0x78897a888669896aU, 0x888a888b89aba998U,
  0x6788a99a986888a8U, 0xa68679a6794a7898U, 0x79788a9799799797U, 0x997779a876766759U,
  0xa6a68a8898788798U, 0x6898888679878987U, 0xa6a7a9ba87988a88U, 0x97999a767987a6a9U,
  0xa88977a5869a7868U, 0x78a768986a767877U, 0x979a87888868877aU, 0xaa87a68887868a7aU,
  0x969a878a8769a857U, 0x889767786a877888U, 0xa6876a78987a98aaU, 0x66a796998a786868U,
  0x9786a6a66788957aU, 0x76786799aa897787U, 0x8795697887a68aa5U, 0x686789768686a968U,
  0x78a7688a99877788U, 0x7868a778799a8a79U, 0xaba6a66a97789889U, 0x986987a878999787U,
  0xa7a8866a8a677797U, 0x77966a97a8989899U, 0x779979aa767988a7U, 0x8788a989977aaa87U,
  0x69888a8899869878U, 0x8766778a97787699U, 0x898778777a97a788U, 0x7688b9a78a89988aU,
  0x7797976a87888978U, 0x8a9a778789779a88U, 0x878a98988877a889U, 0xa8a978679aaa9788U,
  0x89988988899a7667U, 0x9a77877a977a8768U, 0x9789a8a7698a6a67U, 0x9977aa9997876999U,
  0x978797778797778aU, 0x98a7998999768889U, 0x767889999678789aU, 0x7697987877a9777aU,
  0x897888aa87899a8aU, 0xaa6a778978967a97U, 0x9976778868a78787U, 0x68a879887869aa87U,
  0x688767a9989a9888U, 0xa76697a997676787U, 0x8698787a75aa7998U, 0x89788787879a8869U,
  0x8788987678a88789U, 0x8759a76879986a87U, 0x8a7a9a68a89887a8U, 0x9676a787767a7987U,
  0x979a898a98966785U, 0x9aa9676698879797U, 0x697aa7a7a778a988U, 0x9a8898687aa87898U,
  0x867789678789a799U, 0x8888778a9877a799U, 0xa9887868867a8978U, 0x897a7a8a86879977U,
  0x6a999888a8778888U, 0xa88a85a689987a78U, 0x7897797a67a88779U, 0xa97899a7a8787878U,
  0x7799979889797887U, 0x6a7978a67799988aU, 0x779979a787688668U, 0x778a968798879779U,
  0x87797778766a8877U, 0x7889a89888967a79U, 0x8898a788976a7886U, 0x8877895668979868U,
  0x797a889987a97877U, 0x9998786799aa79a7U, 0x877779987a6a8689U, 0x86a8778a7868956aU,
  0x8766a67999798797U, 0x8967877769978a76U, 0x877977978797a876U, 0x8b89a7a887aa88a9U,
  0x798696a887778997U, 0x88aaa78797876a79U, 0x689897696aa87777U, 0x7798aa7798798787U,
  0x7777a78767795688U, 0x967a786a7878888aU, 0xa9a8a887967a878aU, 0xa878a687a6877a89U,
  0x996a77a987797979U, 0xaa9977a9688988a7U, 0x8a67a96a8989877aU, 0x79a7898976678979U,
  0x7aa877678778a76aU, 0x669869899a577988U, 0xa978799a97578a87U, 0x87a8a7a8798a9867U,
  0x888888ba9a9a9787U, 0x9877898796698788U, 0xaa68979989aa9876U, 0x8999a9a968798a68U,
  0x9768a779669a7887U, 0x78776887a9987996U, 0x6979877979a77978U, 0xa877aa6896876989U,
  0x9a787a7787696959U, 0xa98879966697a879U, 0x7789977a89a878a8U, 0x8678987878787769U,
  0x7a8a988889778787U, 0x9789567787aa7798U, 0x86a6997a76897988U, 0x77a86988797a8678U,
  0x7997a87687779689U, 0xa978778a9897a87aU, 0x859988667998a989U, 0x77788998a7877877U,
  0x79a7a8677a999978U, 0xa78787768a6a7898U, 0x89889878879aa89aU, 0x9867a78797aaa989U,
  0x979768976a786969U, 0x79779aa88969899aU, 0x877aa7688887a988U, 0x997789697a889679U,
  0x989989798667a987U, 0x869897978866a797U, 0x7867a7a66a997878U, 0x88a977868a999867U,
  0xa89787a8898a9678U, 0x678997979a7aa99aU, 0x79777a798989688aU, 0x8998988798978a97U,
  0x778a8767778a897aU, 0x9aa899789996aa78U, 0x787799a79a77a978U, 0x8789a888a879a887U,
  0xaa98aaa679888867U, 0xa899a888698a797aU, 0xa7867878aa877aa7U, 0x6897789789698878U,
  0x6a89a797778a77a8U, 0xa899a78877996798U, 0x6869a87876876789U, 0x78978687a7677999U,
  0x688889876898a887U, 0x79888887879a9987U, 0x876988777a99877aU, 0x8a76878786a97677U,
  0xa78a9a99a7677a77U, 0x797977a877898887U, 0xa899799aa6779897U, 0x78a98888879aaa67U,
  0x8778a7897696a889U, 0x8677677896a9689aU, 0xa978996aa9a87969U, 0x78797687a7697879U,
  0x8787a76869979897U, 0x89a888a796888989U, 0x869677a9999a77a8U, 0x997778aa9788a889U,
  0xa8767a7a8676777aU, 0x96678797a88a9a68U, 0xa78a6989a8799796U, 0x778987a797a67887U,
  0x898987679987a698U, 0x87999a79697a7779U, 0x6a8878899a799989U, 0x7686978787799887U,
  0x8a99aa668679778aU, 0x78987a969798aaaaU, 0x8997a866878767aaU, 0x8798a86978777997U,
  0x9878a889966aa879U, 0x98799799aa777999U, 0x998a879876869887U, 0x87a7987a86979877U,
  0x67998a96897768a9U, 0x9687877798a89797U, 0x868998899a877798U, 0x999897779777a787U,
  0x7779a76699797987U, 0x7997997a7777a887U, 0x7698a9a998879877U, 0x8a79aa97a7788859U,
  0x7889789a97877977U, 0x79a77a7898987779U, 0x87a78976799a8989U, 0x697a6aaaa978898aU,
  0x9989a97868787797U, 0x797a798a7a977787U, 0xaa8689a7897979a8U, 0x997aa89898789689U,
  0x69769889988a9889U, 0x878788a8977a9789U, 0x97797a99aa876889U, 0x77a898a6a8987889U,
  0x9679a9a98a888778U, 0x6997a9999a799a88U, 0x9998aa8796679898U, 0x9877868878768867U,
  0x7a899a7a7789aa68U, 0x86799a86899a9aa9U, 0x8777898679986a88U, 0x689a9a9797779888U,
  0x87a78a87a68996a8U, 0x788a8898989a8978U, 0x7a599998a686a695U, 0x78789688887a9777U,
  0x76687a878977a878U, 0x8896aaa788887869U, 0x77a77a6777797869U, 0x8778aa66988a79a9U,
  0x9b6a7759a6a78a78U, 0x8687797878a97596U, 0xaa5786797587aa88U, 0x9897a897867aa769U,
  0x86978988876b7998U, 0x66898a79698999a7U, 0x8768998899778a8aU, 0x7999a89876a689a8U,
  0x7868968776a876a9U, 0x787885789a487a78U, 0xa595a88886599977U, 0x989aa788976a8955U,
  0x8496868789a89876U, 0x66969a97a9477857U, 0x786698789a778967U, 0x896a6a9786997a9aU,
  0x88a789858977b77aU, 0x588698a667a56898U, 0x8886989888589878U, 0x9989a6787667a899U,
  0x877a979978998879U, 0x987799868898aa77U, 0x877878a67a87a678U, 0x77999586888687b8U,
  0x7797868697797576U, 0x9889669a7a9786a7U, 0x75867766a9a59785U, 0x779999867a988988U,
  0x7769677789999777U, 0x8669888a898a8888U, 0xb66a77487997a968U, 0x9897679a8989a88aU,
  0xa8797849a88a8979U, 0xa899889769977898U, 0x775798a8a879a998U, 0x897a799a769a9759U,
  0x797799986897a68aU, 0x99768898aa868898U, 0x8a7779978a98a777U, 0x969778a99998797aU,
  0x6a69a9788a797889U, 0x78796977675a8979U, 0x8986a7a886a8a98aU, 0x7888778879a88978U,
  0x94888a7977779787U, 0x77a9a878a76887a8U, 0x887a8887679a6897U, 0x879878aa86998a9aU,
  0x98a78a7377888887U, 0x8678987888a87968U, 0x97a99978878a9787U, 0xa966a95898887879U,
  0x889a586899a68788U, 0x7978aaa898896669U, 0x9a88987888a89595U, 0x69aa858796878679U,
  0xa776a7987aa99489U, 0x7aa8967a7897877aU, 0x9a6697a968957998U, 0x789aa898976778a7U,
  0x787979798779a877U, 0xa7898aa8999a8787U, 0xa8779789a7999a99U, 0xa889a89b98877a78U,
  0xa868a8488687aaa6U, 0x968879887878a5a8U, 0x8a58a77975988978U, 0x786a77787898997aU,
  0x777976a678a79698U, 0x8698a76898866878U, 0x877aa76987886a79U, 0x8968aaaa77ba879aU,
  0x9888988a8978879aU, 0x778785a7984a7a9aU, 0x98747aa7665a9786U, 0x789a7877878a9757U,
  0x757697aa88899b98U, 0x587888a989596867U, 0x798b79898769a787U, 0x676798a7968989a8U,
  0x8987a886aa988a79U, 0xa8677897899579a7U, 0x6a97a889665689a8U, 0x88977769a865988aU,
  0x886a788987a96857U, 0x87778a7678a8a9a7U, 0x968a9aa6a988a798U, 0xa8a885987699a7a9U,
  0x5889a68987a89496U, 0x7a798a97898aa887U, 0x75a5888789a59894U, 0x778a9976a978896aU,
  0x687679a887a87a98U, 0xa6687878867897a9U, 0xa9999758698698a7U, 0x99798a8b88876779U,
  0x8669aa6999688997U, 0x89787879a8969577U, 0x8a68799985a9a678U, 0x8a88899887aa7788U,
  0xa999aa778796a899U, 0x87787a8899aa7798U, 0xa997a899877aa99aU, 0x989999a878a98897U,
  0x7a88a9aa98898988U, 0xa98788667a686798U, 0x878a798898897888U, 0x8789a89a67a9a979U,
  0x99968897787a7686U, 0x67787887877aa9b8U, 0x87797886aa8a7987U, 0xa877797786887899U,
  0x96aa9865879a9a98U, 0x8a967877a86899a9U, 0x9978a78a9758799aU, 0x8899aa79888889aaU,
  0x9978898989879847U, 0x986a787787989768U, 0x7987a7a88876a88aU, 0x888886969868a488U,
  0xa678a78999979897U, 0x998a98777a8a7778U, 0x97b8a77787877896U, 0x899a7a8998676798U,
  0x78777676a98a9999U, 0x8659a6a979986977U, 0x7888776787a8977aU, 0x8a679898a7787887U,
  0x88a98a9768685866U, 0x7868a7aa99978a96U, 0x7646777779a67887U, 0x97677696889877a7U,
  0x7786956987698788U, 0x8769979aa7878678U, 0x68777957a97a787aU, 0x76899aa965698a69U,
  0x4a87989786998aa7U, 0x68aa777898b98895U, 0x7aa5899877879798U, 0xa68aa87778788888U,
  0x9a7958a98a475887U, 0x9997998798896679U, 0x79996aaa99698668U, 0x5987489a75669948U,
  0x7a878a9a9a696569U, 0x9798769855774877U, 0x5875a87783988878U, 0x8487aa578bb8a567U,
  0x8987697aa88788a7U, 0x9649ba786a68999aU, 0x4b98976998786789U, 0xa6778a6679786667U,
  0x997a687778796a97U, 0x8997899866a85889U, 0x65757666987a7888U, 0x7688658677988696U,
  0x9785a7a98779a9a7U, 0x889aa88986877988U, 0x597a889899887a99U, 0x7665766285698a77U,
  0x7887879799788888U, 0xa988a8776a97989aU, 0x8a6665787577977aU, 0xaa676a7aa99a9976U,
  0x998a779aa8ba9a96U, 0x97769a7a987687a9U, 0x999a8779a7798a77U, 0x6686798a9a867988U,
  0x7a89697a778878baU, 0x677878a68677aa77U, 0x689887996aa899a8U, 0x769a798896878898U,
  0x7688787a98587aa6U, 0x9888768987999888U, 0x86aa8a768a697789U, 0x886989a8689b886aU,
  0x7679888698979667U, 0x9987977887a86798U, 0x9777aaa888776776U, 0x997aaa8879998a78U,
  0x9a76a9b877998a87U, 0x998767977a7a87a6U, 0x87776999699a98aaU, 0x78a9a76788797797U,
  0x8998859879977987U, 0x7976a77878a98967U, 0x899aa77895a87687U, 0x77779877867aa57aU,
  0x897898777899a77aU, 0x7aa996698a88879aU, 0x7a98a8876777a788U, 0xa776877799777978U,
  0x8878965888a77967U, 0xa698a87767a8a7a8U, 0x8b676968a59a7a98U, 0x788aa9b887987a56U,
  0x7987897878789897U, 0x87777789799768aaU, 0x8986766897a99899U, 0x76a98a98868787a9U,
  0x99698677867a9699U, 0xa8aa8aa878698a88U, 0xa9a868a7a7898869U, 0xa97a8996887a867aU,
  0x8695a8687986a889U, 0x8888a96a875a9998U, 0x8996977887786889U, 0xa998777a96679779U,
  0x6a979a75a79a988aU, 0xa877877798a88798U, 0x77787a8a675979abU, 0xa686aa5976786687U,
  0x9678777a88786967U, 0x6767899887986a8aU, 0x6878a6999aa98778U, 0x7aa9a6a8888976aaU,
  0x987986a8989876a6U, 0x96798987797a8887U, 0x97b9788a78769976U, 0x69a6ba86a799aa77U,
  0x77967a9897897999U, 0x9b579789776a9a89U, 0xa9a89769798977a6U, 0x879676a798989aa9U,
  0xa9769667887a97a8U, 0x988978896aa86787U, 0x78a9866778668996U, 0x9979877689888879U,
  0x8aaa78a8aaa69967U, 0xaa798789a9a77798U, 0xa87a797a868889a9U, 0x88787a887a877999U,
  0xa97a8a987697a889U, 0x79897689a9877876U, 0x89a989a97a587977U, 0x77aaa98897a98696U,
  0xaaa89aa79aa79679U, 0x66789977a7a99987U, 0x9999788767a9867aU, 0x6799879898998a9aU,
  0x879878978798a868U, 0x99677787a6a87868U, 0x88969877798a7877U, 0x8978a99788787889U,
  0x8978a7887997798aU, 0x79689a79686a89a9U, 0x8a667788aaa778a6U, 0x66a87966996877a8U,
  0x977788997679a887U, 0xa986699887a9aa87U, 0x87868689668a7a87U, 0x7789787687a67679U,
  0x79797a7978797879U, 0x67899a898967977aU, 0x9878876779898989U, 0x89a8779867999978U,
  0x8687999778685697U, 0x8a66a8a96a788797U, 0x888787997a978a78U, 0x8968997989a9896aU,
  0x78a9a8988899a869U, 0x96777886a796689aU, 0x79878787a8987898U, 0x7a9777787867797aU,
  0x97978667879a8a9aU, 0x89a68878a9679976U, 0xa8777a9678677999U, 0x9788aa788998775aU,
  0x7aa8aa87789a9868U, 0x9887a777888886a7U, 0x888a88a6a687887aU, 0x87789a8869668a89U,
  0x779998a8aa9a8799U, 0xa7a6a7a77899a978U, 0x88879986aa899788U, 0x777888878a77868aU,
  0x789a8898a9799777U, 0x8979987a9a979877U, 0x89989878789857a7U, 0xa88878689a69788aU,
  0x77987978a977a787U, 0x7987779778876a78U, 0xa667799a9988a779U, 0x78a88887ab7778a9U,
  0x9798769988977778U, 0xa869876876896897U, 0xa879697a9aa898a8U, 0x7796898a976969aaU,
  0x97979969776a679aU, 0x7a8689998a7786a7U, 0xa866768887997987U, 0x8897a797867a8689U,
  0x7789798669779879U, 0xa988789889a67a77U, 0x6988a77777979887U, 0x679797a7a697aa77U,
  0x89778a977876878aU, 0x897886a697679797U, 0x6a77987988788899U, 0x778a9879a8a97757U,
  0x889599888877a886U, 0x96779779a8877a87U, 0x8a77986777887889U, 0x988978986769a99aU,
  0x78778965888a6779U, 0x878998a889997787U, 0x9766a88888898978U, 0xa78a798686988888U,
  0x7776879997897777U, 0x879a9a8978797799U, 0x789696989a887696U, 0x697798969879989aU,
  0x898a969877787798U, 0x776a679676998979U, 0x8aaa868877a79777U, 0xaa786677768788a7U,
  0x878877767aa98977U, 0x8778899a9786a668U, 0x769a675987a77889U, 0x86679896986a9789U,
  0xa69878578a798786U, 0x9997887b9778968aU, 0x9978a7767687889aU, 0xaa7a778987799899U,
  0x8979898a87a69a89U, 0xa7a8a988678a8977U, 0x66887888779788a8U, 0x7b6859897799aa88U,
  0x6968a799889898a8U, 0x9a7778a7888a6a98U, 0x898676aa7686a798U, 0xa99a9a9889878789U,
  0x8895969768a76998U, 0x99888776a867aa68U, 0x796998a778786867U, 0x99797a87a9987878U,
  0x9896a78a8897a579U, 0x7878aa888778aa76U, 0x8a77977a7868797aU, 0x88a7896768786899U,
  0x77978a9789789a79U, 0x887aa7aa69878887U, 0x79797a8a78aa6978U, 0x76a8989677889889U,
  0x86787699797a9796U, 0xa9899999878796a8U, 0x776aa8a789788868U, 0x786a7688a877888aU,
  0x6786886778898886U, 0xa76a9867a88a7a88U, 0x5a7a9979a9897aaaU, 0x8977889688688998U,
  0x88988ac88a886a98U, 0x8988977aaa898878U, 0x87c998a978897897U, 0xa88aa8a9899878a5U,
  0x89868898a785788aU, 0x899a69888897797aU, 0x995aa98797887989U, 0x9998687897587889U,
  0x896899a89798988aU, 0x7a8898a8a8a8a976U, 0xa8a6798997a8768aU, 0xa889697979a8789aU,
  0x8c7a999789885779U, 0xb997978877b998a9U, 0x98897789a8889988U, 0xa89969989a85aa57U,
  0x9987898b9988a697U, 0x7788a998aa7a7769U, 0x78a9487788997679U, 0x78767aa97778a899U,
  0x9aa8788878498789U, 0x9687a9987a579799U, 0x9998888878795b96U, 0x78898b8b7a788f98U,
  0x9977998788877c88U, 0xaa987799799a8887U, 0x9a5ba86777aa89a9U, 0x89a7989997aaaaaaU,
  0x889877a889999899U, 0x698a89aa99998a89U, 0x5898868988a9b699U, 0x7887a994a86899a7U,
  0x9876a997a977a8a9U, 0x69888a9766977787U, 0x87a98777868a8769U, 0x887a8a97997876a8U,
  0x7989a78a8a667789U, 0x98876998887778a7U, 0x99989787a8979977U, 0x8678599878898888U,
  0x787a89aa99799aaaU, 0xa88787a968686887U, 0x8a88a7878869a888U, 0x79979aa89876a75aU,
  0x988899878a7a6878U, 0x9979899767778987U, 0x99aa7887987897a7U, 0x9778a687a8798669U,
  0x8987798998788799U, 0x889699888987a777U, 0xa9a96a8889689a86U, 0x889998796a796687U,
  0x8aa6877886778a78U, 0x7978986a88a9a87aU, 0x7a77a899888785a8U, 0xa877977797886887U,
  0x7a9896889989a688U, 0x78768a8aa9a96968U, 0x99976669879888a6U, 0x788ab8a889997a87U,
  0x788988877787a8a8U, 0x986a896969676788U, 0x588a8a6a78978978U, 0x7799778686a87888U,
  0x88769a7869987896U, 0x799a897788899778U, 0x9767a7a977887766U, 0x878987a98999aa68U,
  0x7889a7998766a997U, 0x6a69788699699979U, 0x888a8787767889a7U, 0xa79889a786697899U,
  0x66a887987788888aU, 0xa98976798867aaaaU, 0xa8998a678687988aU, 0x768979688a999869U,
  0x88877678aa889887U, 0x8a7a69967868aa78U, 0x89a77888a8688868U, 0x79996898a677a979U,
  0x78a898878967a977U, 0x7688686797779a97U, 0xa9989987677a6786U, 0x9878798887897897U,
  0x7a8a7a78a768a87aU, 0x7799889679a777aaU, 0x6899a898a76767a7U, 0xa8798696997a6a66U,
  0x67899877897796a7U, 0xa8787aa99898888aU, 0x8686a798769776a7U, 0x886778898977886aU,
  0x8687969768a98776U, 0x7688997898779888U, 0x68898a777a8988a8U, 0xa7968788a6798967U,
  0x7998786a9889a978U, 0x78688a88887a87a7U, 0xaa6797789879a899U, 0xaa687978778a979aU,
  0xa878788986768689U, 0x8796977889969698U, 0x87a9aa87a88a7999U, 0x97a7688799aa886aU,
  0x776aaaa777798977U, 0x9a7a7887a9879a98U, 0x977888798858a766U, 0x98a98679a9889977U,
  0x999877797877a799U, 0x87789986977a786aU, 0x69977a677a8977a9U, 0x778979978a787898U,
  0xa88998a6967a9688U, 0x877a88a977a88787U, 0x79a76aa77a8a7776U, 0x798897a678776699U,
  0x799989a88799979aU, 0x99aa97799aa87678U, 0x879897979779a796U, 0x999977aaa7989878U,
  0x8877a96897778896U, 0x7a7887888788a997U, 0xa65998a775a68777U, 0x8a87788799a88677U,
  0x766777899898aa78U, 0x9996986a8896a668U, 0x9aa6986898788797U, 0x886a79a99a788a87U,
  0x8878898777576787U, 0xa77a898869979698U, 0x9968a899a69a9777U, 0x977788879aa87a68U,
  0x87688978a9788a88U, 0x7978869787878669U, 0x88879988997aa7aaU, 0x879a588677989799U,
  0x68879987997788aaU, 0xa786798988776899U, 0x7975a7a868777a78U, 0x797a767689888978U,
  0x9778868997787899U, 0x89799988a6987a77U, 0x79997887868aa987U, 0x8a968a979979a977U,
  0x78997676a799869aU, 0x6a8788688aa8a97aU, 0x8867979696877979U, 0x7897aa777777898aU,
  0xa8797a9a98978868U, 0x9987778a8aa88779U, 0x98867687989a8676U, 0x9988a88769778897U,
  0x89976877a897a899U, 0x7688a89896987987U, 0x7957987976698986U, 0xa77879799687a789U,
  0x778a7888899a88a9U, 0x8969767887978767U, 0x8989898a79876678U, 0xa8787898a799a98aU,
  0x8a98877996778979U, 0x997998788987a778U, 0x777996878768a967U, 0x8a67788797a97799U,
  0x8797867789778769U, 0x998687a788799896U, 0x877979997a88a897U, 0x76785976a6788878U,
  0x78778a77679a9886U, 0x7aa88a6888a97979U, 0x997589a7876a88a6U, 0xa867a76779798978U,
  0xa9787888a9677a88U, 0x977a877878887766U, 0x98a7a998778a76a9U, 0x7878788987967799U,
  0xa989878679a9a889U, 0xa876a87787a86889U, 0x6998899869777876U, 0x8698889899897997U,
  0x9a9998a879789a67U, 0xa8a8a779667a8969U, 0x96779a878799a689U, 0x9899a9878987a886U,
  0x667877779887a6a6U, 0x9988a888987a8876U, 0x7769787975a99898U, 0x8a78a89898679988U,
  0x6a6aaa7887aa9888U, 0x7976a67877876878U, 0x7a96775999a898a6U, 0x98997999899a8888U,
  0x7aa6878876997766U, 0x9889a7a988978778U, 0x9878979996798987U, 0x9898a766867a9766U,
  0x988877689a6798a7U, 0x9a987798977a6778U, 0x887a779a86898897U, 0x69797788a8769998U,
  0xaaa7aa987a768989U, 0x9988a69977687a77U, 0x67788a967886a886U, 0x978a887998977777U,
  0xa8769899a9888778U, 0x9897a78a7a7799a8U, 0xa778898778777799U, 0x8a6899a7898798a6U,
  0x789a999779997a88U, 0xa8787777999a8777U, 0x77a78a8888699a79U, 0x9768786787999876U,
  0x7967a7a887799889U, 0x8887a787989a9988U, 0x8978878a6868677aU, 0x989998a67977967aU,
  0x76a888a878aa8698U, 0x7679796777796987U, 0x7678779a98888886U, 0x69878887978a9778U,
  0x9978769a797aaa66U, 0x7668897a99a79878U, 0x6988a86a779aa789U, 0x7988a778878a77a7U,
  0x9797a89a89799678U, 0x9798888786777677U, 0xa6a8aaa896a86776U, 0x7a798967a9a7aa66U,
  0xa797679766968689U, 0x7aa969768a869a9aU, 0x98899a8a8a7a9aa6U, 0x9a996a7786a68889U,
  0x996978a777879889U, 0x888968788888967aU, 0x8978899797898685U, 0x98977988a8886768U,
  0x99778a8a87899a89U, 0x676888a89697678aU, 0x8997889789886688U, 0x6989977a78997787U,
  0x678a798897897988U, 0x6869868778799889U, 0x6997a97a7879a7a9U, 0xa78788a867a79a7aU,
  0x8788989897777988U, 0x987a997879889989U, 0x8868986978aa6879U, 0x779996877a686697U,
  0x6a9a988888897797U, 0x8777978879a76678U, 0xa8779788a6a88875U, 0x89a8677886798a97U,
  0x67979788988766a8U, 0x767878799997788aU, 0x9aa788a767779869U, 0x8877777887778897U,
  0x7699968689596786U, 0x887869aa6a878678U, 0x8b8a8968978997a8U, 0xa9689a7798787796U,
  0x796898767877798aU, 0x8778a6678787988aU, 0x7788886798787977U, 0x76798777a9897a78U,
  0x888998799a78989aU, 0x9796996797898997U, 0xa8997798777888a6U, 0x8a98789987768688U,
  0x87a998887a987898U, 0x68a9978978789987U, 0x8a7778868897a8aaU, 0xa888aa6976777986U,
  0x78a988a66978a779U, 0x9aa7b899a9678787U, 0x9879897998879789U, 0x9798aa86777689a7U,
  0x878a97a99788a868U, 0x7797a87a7987788aU, 0x9699689999996868U, 0x97a9a79889697997U,
  0x798799879788a799U, 0xa7798868a8aa9897U, 0x898798a788a98676U, 0x787879a69999a679U,
  0x7776799a89a96797U, 0xa899997879899969U, 0x77887a977aa99798U, 0xa7878a96a69a9989U,
  0x8879778a77598aa6U, 0x87a789a897977689U, 0x77b996a898a78878U, 0x9a87a9a979979a97U,
  0x78879a89a7758a77U, 0x9aa99998789876a8U, 0xa798a66a7a8a9897U, 0x777a58aaa7a76977U,
  0x7999878877a9878aU, 0xb7a797867a898689U, 0x789987768799a669U, 0x88976a7a78988798U,
  0x777a878a88a76877U, 0xb999a78869a99a79U, 0x97787857aa977767U, 0x7998b88a88669aa8U,
  0x88aa799a78a8b7a9U, 0x8a798689aa99aaaaU, 0x97a568767999687bU, 0x88768aa6a9a7a798U,
  0x8a7868799989797aU, 0x69a77a7888888897U, 0x9799a8786a875a7aU, 0x78aa897b9848997aU,
  0x6787877997988989U, 0x67b88796887a9968U, 0x865977a775868697U, 0x989a879675988a77U,
  0x99a7a888787a8998U, 0x98699a98968788aaU, 0x797a98798a76a787U, 0x88788967968a7898U,
  0x998777c77a577988U, 0x69896796779a7786U, 0x95b87798a779a689U, 0x9a77a768889a7a86U,
  0x888a86689a749979U, 0x799aaa8797aaa9a7U, 0x9a887a769a877999U, 0x758a59a776877a88U,
  0xa977789897a88577U, 0xaaa8a795a78a9976U, 0x9995786798878a97U, 0xa889aa6a8a886877U,
  0xa77867b88aaa9576U, 0xa9a8978878aa9a87U, 0x98a7688778888787U, 0x8987d989aa687779U,
  0x9977a7987988b699U, 0xaaa9b898a99aaaa9U, 0x77a6887a8b886a87U, 0xaa976aa6788a87a7U,
  0x99a89a766788786aU, 0x86a97a977a778668U, 0x9897a97878874888U, 0x6988a99b67389b9aU,
  0x777aa998a8997889U, 0x87b57668a68aba47U, 0x7649887a747779a8U, 0x78778878858a8889U,
  0x9988a88799a87777U, 0x76779a877a894879U, 0x76799a9a8a86a6aaU, 0xa776999595597769U,
  0xa99978579a979778U, 0x8a89a7a87a89767aU, 0xa67798999587a787U, 0x996788678a99a88aU,
  0x6a8779779a8b8968U, 0x78787998878869a7U, 0x88878798a9a77788U, 0x88a9c7998777977aU,
  0x9987698989a9aa97U, 0xa9869787886a7a7aU, 0x988a779779687a78U, 0x8889a8a868789846U,
  0x867697a89988b97aU, 0x699777787a69a7a6U, 0x789799687a9a6887U, 0x88776989676978a7U,
  0x8889a68987898a98U, 0x78a7876789797988U, 0x6977898a98687798U, 0xa769977a7a76887aU,
  0x9a9988687a998869U, 0x987778899968878aU, 0x898887a7889aa889U, 0x888786787889787aU,
  0x68996876786a7688U, 0x8878a788a7978786U, 0xa9b878989a89a886U, 0x8a87978799689978U,
  0x9698797689978988U, 0x7a78886a79a77777U, 0xa799765978a78a88U, 0xa99a997997aa8897U,
  0x77777878677aa788U, 0x8797a89976a88688U, 0x7988799877aa7988U, 0x76787867798a9967U,
  0x798aa9a99879aa8aU, 0x8a887a7888a69897U, 0xa787aa88a888aa98U, 0xa898a9aaa888a99aU,
  0x888677a876889a79U, 0x9a799698a8779a89U, 0x869799879978989aU, 0xa688a7a789a96866U,
  0x96968a98989988a9U, 0x979779978879a898U, 0x778a978868697777U, 0x9789988a7979a876U,
  0xa987888968a98999U, 0x899a897699a77768U, 0x79a788996887aaa7U, 0x98aa9a8879968997U,
  0xa6996a7996996a69U, 0x9679a9a797aaaa7aU, 0x79969978889a7697U, 0x76777886a7aa7868U,
  0x86987878788a9788U, 0x6998797997987766U, 0x7a5a8a9a76a68888U, 0x87a7a7a767898889U,
  0x89788789887a77a9U, 0x87797768a8a8978aU, 0xa7a997879a778798U, 0x98979a9797997878U,
  0x86a67897a77a9998U, 0x989888967aa886a7U, 0x6778a7a876779a99U, 0x888a6aa89677a986U,
  0x7a9878a98678a797U, 0x7a78788a887896a8U, 0x98976a799998777aU, 0x877a997779769768U,
  0x997a997799887a89U, 0x8a68988978779888U, 0x8878878a8867689aU, 0xa887786678998877U,
  0x67779a7a8a7a7797U, 0x98888a7a87779779U, 0x6999899987886698U, 0x8898a87a87678799U,
  0x787767a96aa87a9aU, 0x6898779989877a9aU, 0x86aaa99996677788U, 0x9899887798789799U,
  0x7a9969aa77798677U, 0x99879897899a8779U, 0x7999a88777a88788U, 0x777787869969987aU,
  0x7877a8668877a9a9U, 0x7876879a97796a87U, 0x6786879675896967U, 0x897769a876898997U,
  0x8778998878768899U, 0x986a87889989797aU, 0x6777a97a7778898aU, 0x878a9a96a9698997U,
  0x77aa998888679888U, 0x8879a89799a79696U, 0x7878999775978a77U, 0x8798a9976a77a888U,
  0x9989786879969978U, 0x8899776aa9778879U, 0x78799979a69a788aU, 0x9877877a78a8aa77U,
  0xa88a8a7888a97886U, 0x897979a698698996U, 0x788a6998a777986aU, 0x96a77aa897967878U,
  0xa965867787696899U, 0x78aa89a879879a8aU, 0xa9a78a79a7678799U, 0x8667679777a89979U,
  0x8688987698998689U, 0x6998886aa7898798U, 0x7797798978778a79U, 0xa9987a868689876aU,
  0xa987889696879a9aU, 0x979a797a79887a97U, 0x766578787a9a6788U, 0x6998a87767588877U,
  0x9779788978888669U, 0xa678a977a7a69897U, 0xa766989898a78777U, 0x9987887687797777U,
  0x9977969987789897U, 0x89a8a97879888798U, 0x787a68797aa677a9U, 0x9789a866a969876aU,
  0xa8799788987897a7U, 0x8a78798798988688U, 0xa6a7977978778a88U, 0x78687777aa889867U,
  0xa98877986876aa96U, 0x7776a887979a8998U, 0x6a788798a87a7a99U, 0x98887a7776788797U,
  0x7669967788879977U, 0x7896687998879777U, 0xa97798a999797a98U, 0x788a7977a9986768U,
  0x998677878a8a9a98U, 0x89697a787778a88aU, 0x8a89977877987979U, 0x79777a7a89a97988U,
  0x7897a9a88977a688U, 0x876888968aa77a78U, 0x89a9a9a89a877779U, 0x997a78788a989788U,
  0x97678a6988777786U, 0x879a797a88a79987U, 0x7997969a7a9876a6U, 0x788a797867978978U,
  0x878887878989a7a8U, 0x77889aa9a6998a9aU, 0x6978a79696677786U, 0x96878988a7877898U,
  0xa86779a7977a9777U, 0xa987898a99777788U, 0x99897a8779889699U, 0x6996878776778787U,
  0x9a879799986977a8U, 0x777778778a877877U, 0xa87666887777779aU, 0xa8789a77aa78887aU,
  0x876887689898a987U, 0x98a989878798a897U, 0x789979668989776aU, 0x7897a878887a786aU,
  0x87988978a7787aaaU, 0x789787a68668898aU, 0x966b99988867a887U, 0x9aaa999877867a8aU,
  0x77779678a9789979U, 0x868888a968a97aa8U, 0x98a7a87977877887U, 0x87a998989986a877U,
  0x6797798889896869U, 0x8879778898678796U, 0x878678897a686877U, 0x9a7a8a89976a99a9U,
  0x7a8a787977999988U, 0x77779a6a799997a7U, 0x6967a97867a87886U, 0x789989878867677aU,
  0x6677788986889788U, 0xa888898aa68a7a67U, 0x7a8878a798998978U, 0x67a7a6a97889a88aU,
  0x8678778889777787U, 0x799a8a6779786679U, 0x66a7975888969a77U, 0xa878a89688887888U,
  0x9777a68a6a7768a8U, 0x777798a698998587U, 0x97a6989975879887U, 0x8a667999799789a7U,
  0x9869a7998778a777U, 0x99a8889989979a79U, 0x9798997a88998889U, 0x9997a8a899968878U,
  0x878889986879a778U, 0x78a6789897797998U, 0xa88b7a8767977879U, 0x88878978a7967a57U,
  0x7a97a77886898689U, 0x868698a7778aa757U, 0x987888799a876998U, 0x9888589888658a76U,
  0x9788887b869a6878U, 0x8789aa9789697a8aU, 0x9a99a7887a88a9a6U, 0x9786796886677889U,
  0x88976a8a99898759U, 0x9a8788879aa7a897U, 0x87aa66898a6a8896U, 0x78878a9689779a88U,
  0x9a99789778778679U, 0x7887a78a77aa6689U, 0x888a779978798887U, 0x8769a77aa8689897U,
  0x997887899987799aU, 0x87788797a88a9b89U, 0x587779877876996aU, 0x8977888587697978U,
  0x89a669a987787767U, 0x789a57777a69a788U, 0x86a8767897896a68U, 0x98a7988aa79a7888U,
  0x7789787aa8767999U, 0x7797a77a877a9887U, 0x77997877678a8779U, 0x9978588788887777U,
  0x78787a89689a7799U, 0xb998697697897897U, 0x777a98a899679977U, 0x8a98a779aa879989U,
  0x788988a98a778696U, 0xa78987997697a867U, 0xaa697769a978989aU, 0x9988b7898aa97978U,
  0xa787776a8988b886U, 0x8787aaa7a7a78a89U, 0x88a677a78a888889U, 0xa988a8a89aa996a9U,
  0x9889886676977869U, 0xa8a999696a9a777aU, 0xaa789878a8975a79U, 0xa879997a68498b98U,
  0x797799a788877988U, 0x9799a878799aa768U, 0xa658997887aa8898U, 0x89a7a79876a886a6U,
  0x98987999a6a968a7U, 0x887888aa87688a8aU, 0x678a7698888789a8U, 0x9a88a7888aa89887U,
  0x96987768986a69a9U, 0xa8789896777a9787U, 0x8789767896969a86U, 0xa897879a77979869U,
  0x88a888a77aa88889U, 0x88a7aa9a7796a789U, 0x78a9a79a99897786U, 0x9787778a88778887U,
  0x978788aa8888a897U, 0xa9a67789798a7aa6U, 0xaa779879a8787789U, 0x9687899997997a87U,
  0x7a866879a7887a88U, 0x99a898a999687968U, 0x7a9a6aa687797667U, 0x9897a7977769779aU,
  0x87a789a7a99aa967U, 0x7a898998a78aa786U, 0x998777899a898786U, 0x9887a97978a87877U,
  0x7898877767898779U, 0x8699969868887a79U, 0x69979a89898a8a79U, 0x878979776a88a888U,
  0xa6987899a9798797U, 0xa987a888888a6aa9U, 0x68696988a6978785U, 0x776987898776a978U,
  0x988a78678a8a799aU, 0xa66979978778786aU, 0x7787898788767767U, 0x78a8989788997767U,
  0x879678b878677886U, 0x7898a978aa888978U, 0x79baa68889a98987U, 0x87876ab68a8a98a8U,
  0x687a877899958788U, 0x66797877897a97aaU, 0xa797798778789a9aU, 0x788a579987687898U,
  0x7998a687978aaaa9U, 0xaaa779a999898a68U, 0x8a769a89a788a98aU, 0xa779876779aa7897U,
  0xa79a8aa8a88a8887U, 0x779698a8a87a9aa6U, 0x878898b7a788877aU, 0x9989b97768799997U,
  0x99a867799a7787a8U, 0x8a87aa9699789997U, 0x88a78a799a9778a8U, 0x89b8a896aa789687U,
  0x9979aaaa98679988U, 0xa997a9978a678877U, 0x869699796a794898U, 0x8999878b79577b78U,
  0x6878a9999aa67aa7U, 0x89a6a688aa77a889U, 0x954ba88996879868U, 0x8a9b988796897899U,
  0x7867a78899678a99U, 0x7a699997a7987a68U, 0xaa7979a688889987U, 0x8996779a8a8a7799U,
